[PAD]
[unused1]
[unused2]
[unused3]
[unused4]
[unused5]
[unused6]
[unused7]
[unused8]
[unused9]
[unused10]
[unused11]
[unused12]
[unused13]
[unused14]
[unused15]
[unused16]
[unused17]
[unused18]
[unused19]
[unused20]
[unused21]
[unused22]
[unused23]
[unused24]
[unused25]
[unused26]
[unused27]
[unused28]
[unused29]
[unused30]
[unused31]
[unused32]
[unused33]
[unused34]
[unused35]
[unused36]
[unused37]
[unused38]
[unused39]
[unused40]
[unused41]
[unused42]
[unused43]
[unused44]
[unused45]
[unused46]
[unused47]
[unused48]
[unused49]
[unused50]
[unused51]
[unused52]
[unused53]
[unused54]
[unused55]
[unused56]
[unused57]
[unused58]
[unused59]
[unused60]
[unused61]
[unused62]
[unused63]
[unused64]
[unused65]
[unused66]
[unused67]
[unused68]
[unused69]
[unused70]
[unused71]
[unused72]
[unused73]
[unused74]
[unused75]
[unused76]
[unused77]
[unused78]
[unused79]
[unused80]
[unused81]
[unused82]
[unused83]
[unused84]
[unused85]
[unused86]
[unused87]
[unused88]
[unused89]
[unused90]
[unused91]
[unused92]
[unused93]
[unused94]
[unused95]
[unused96]
[unused97]
[unused98]
[unused99]
[UNK]
[CLS]
[SEP]
[MASK]
[unused100]
[unused101]
!
"
#
$
%
&
'
(
)
*
+
,
-
.
/
0
1
2
3
4
5
6
7
8
9
:
;
<
=
>
?
@
A
B
C
D
E
F
G
H
I
J
K
L
M
N
O
P
Q
R
S
T
U
V
W
X
Y
Z
[
\
]
^
_
`
a
b
c
d
e
f
g
h
i
j
k
l
m
n
o
p
q
r
s
t
u
v
w
x
y
z
{
|
}
~
¡
¢
£
¥
§
¨
©
ª
«
¬
®
°
±
²
³
´
µ
¶
·
¹
º
»
¼
½
¾
¿
À
Á
Â
Ä
Å
Æ
Ç
È
É
Í
Î
Ñ
Ó
Ö
×
Ø
Ú
Ü
Þ
ß
à
á
â
ã
ä
å
æ
ç
è
é
ê
ë
ì
í
î
ï
ð
ñ
ò
ó
ô
õ
ö
÷
ø
ù
ú
û
ü
ý
þ
ÿ
Ā
ā
ă
ą
Ć
ć
Č
č
ď
Đ
đ
ē
ė
ę
ě
ğ
ġ
Ħ
ħ
ĩ
Ī
ī
İ
ı
ļ
Ľ
ľ
Ł
ł
ń
ņ
ň
ŋ
Ō
ō
ŏ
ő
Œ
œ
ř
Ś
ś
Ş
ş
Š
š
Ţ
ţ
ť
ũ
ū
ŭ
ů
ű
ų
ŵ
ŷ
ź
Ż
ż
Ž
ž
Ə
ƒ
ơ
ư
ǎ
ǐ
ǒ
ǔ
ǫ
Ș
ș
Ț
ț
ɐ
ɑ
ɔ
ɕ
ə
ɛ
ɡ
ɣ
ɨ
ɪ
ɲ
ɾ
ʀ
ʁ
ʂ
ʃ
ʊ
ʋ
ʌ
ʐ
ʑ
ʒ
ʔ
ʰ
ʲ
ʳ
ʷ
ʻ
ʼ
ʾ
ʿ
ˈ
ː
ˡ
ˢ
ˣ
́
̃
̍
̯
͡
Α
Β
Γ
Δ
Ε
Η
Θ
Ι
Κ
Λ
Μ
Ν
Ο
Π
Σ
Τ
Φ
Χ
Ψ
Ω
ά
έ
ή
ί
α
β
γ
δ
ε
ζ
η
θ
ι
κ
λ
μ
ν
ξ
ο
π
ρ
ς
σ
τ
υ
φ
χ
ψ
ω
ό
ύ
ώ
І
Ј
А
Б
В
Г
Д
Е
Ж
З
И
К
Л
М
Н
О
П
Р
С
Т
У
Ф
Х
Ц
Ч
Ш
Э
Ю
Я
а
б
в
г
д
е
ж
з
и
й
к
л
м
н
о
п
р
с
т
у
ф
х
ц
ч
ш
щ
ъ
ы
ь
э
ю
я
ё
і
ї
ј
њ
ћ
Ա
Հ
ա
ե
ի
կ
մ
յ
ն
ո
ս
տ
ր
ւ
ְ
ִ
ֵ
ֶ
ַ
ָ
ֹ
ּ
א
ב
ג
ד
ה
ו
ז
ח
ט
י
כ
ל
ם
מ
ן
נ
ס
ע
פ
צ
ק
ר
ש
ת
،
ء
آ
أ
إ
ئ
ا
ب
ة
ت
ث
ج
ح
خ
د
ذ
ر
ز
س
ش
ص
ض
ط
ظ
ع
غ
ف
ق
ك
ل
م
ن
ه
و
ى
ي
َ
ِ
ٹ
پ
چ
ک
گ
ہ
ی
ے
ं
आ
क
ग
च
ज
ण
त
द
ध
न
प
ब
भ
म
य
र
ल
व
श
ष
स
ह
ा
ि
ी
ु
े
ो
्
।
॥
আ
ই
এ
ও
ক
খ
গ
চ
ছ
জ
ট
ত
থ
দ
ধ
ন
প
ব
ম
য
র
ল
শ
স
হ
়
া
ি
ী
ু
ে
ো
্
য়
க
த
ப
ம
ய
ர
ல
வ
ா
ி
ு
்
ร
་
ག
ང
ད
ན
བ
མ
ར
ལ
ས
ི
ུ
ེ
ོ
ა
ე
ი
ლ
ნ
ო
რ
ს
ᴬ
ᴵ
ᵀ
ᵃ
ᵇ
ᵈ
ᵉ
ᵍ
ᵏ
ᵐ
ᵒ
ᵖ
ᵗ
ᵘ
ᵢ
ᵣ
ᵤ
ᵥ
ᶜ
ᶠ
ḍ
Ḥ
ḥ
Ḩ
ḩ
ḳ
ṃ
ṅ
ṇ
ṛ
ṣ
ṭ
ạ
ả
ấ
ầ
ẩ
ậ
ắ
ế
ề
ể
ễ
ệ
ị
ọ
ố
ồ
ổ
ộ
ớ
ờ
ợ
ụ
ủ
ứ
ừ
ử
ữ
ự
ỳ
ỹ
ἀ
ἐ
ὁ
ὐ
ὰ
ὶ
ὸ
ῆ
ῖ
ῦ
ῶ
‐
‑
‒
–
—
―
‖
‘
’
‚
“
”
„
†
‡
•
…
‰
′
″
⁄
⁰
ⁱ
⁴
⁵
⁶
⁷
⁸
⁹
⁺
⁻
ⁿ
₀
₁
₂
₃
₄
₅
₆
₇
₈
₉
₊
₍
₎
ₐ
ₑ
ₒ
ₓ
ₕ
ₖ
ₘ
ₙ
ₚ
ₛ
ₜ
₤
€
₱
₹
ℓ
№
ℝ
⅓
←
↑
→
↔
⇌
⇒
∂
∈
−
∗
∘
√
∞
∧
∨
∩
∪
≈
≠
≡
≤
≥
⊂
⊆
⊕
⋅
─
│
■
●
★
☆
☉
♠
♣
♥
♦
♭
♯
⟨
⟩
ⱼ
、
。
《
》
「
」
『
』
〜
い
う
え
お
か
き
く
け
こ
さ
し
す
せ
そ
た
ち
つ
て
と
な
に
の
は
ひ
ま
み
む
め
も
や
ゆ
よ
ら
り
る
れ
ん
ア
ィ
イ
ウ
エ
オ
カ
ガ
キ
ク
グ
コ
サ
シ
ジ
ス
ズ
タ
ダ
ッ
テ
デ
ト
ド
ナ
ニ
ハ
バ
パ
フ
ブ
プ
マ
ミ
ム
ャ
ュ
ラ
リ
ル
レ
ロ
ン
・
ー
一
三
上
下
中
事
二
井
京
人
亻
仁
佐
侍
光
公
力
北
十
南
原
口
史
司
吉
同
和
囗
国
國
土
城
士
大
天
太
夫
女
子
宀
安
宮
宿
小
尚
山
島
川
州
平
年
心
愛
戸
文
新
方
日
明
星
書
月
木
本
李
村
東
松
林
正
武
氏
水
氵
江
河
海
版
犬
王
生
田
白
皇
省
真
石
社
神
竹
美
義
花
藤
西
谷
車
辶
道
郎
郡
部
野
金
長
門
陽
青
食
馬
高
龍
龸
사
씨
의
이
한
ﬁ
ﬂ
！
（
）
，
－
／
：
the
of
and
to
in
was
The
is
for
as
on
with
that
##s
his
by
he
at
from
it
her
He
had
an
were
you
be
In
she
are
but
which
It
not
or
have
my
him
one
this
me
has
also
up
their
first
out
who
been
they
She
into
all
would
its
##ing
time
two
##a
##e
said
about
when
over
more
other
can
after
back
them
then
##ed
there
like
so
only
##n
could
##d
##i
##y
what
no
##o
where
This
made
than
if
You
##ly
through
we
before
##r
just
some
##er
years
do
New
##t
down
between
new
now
will
three
most
On
around
year
used
such
being
well
during
They
know
against
under
later
did
part
known
off
while
His
re
...
##l
people
until
way
American
didn
University
your
both
many
get
United
became
head
There
second
As
work
any
But
still
again
born
even
eyes
After
including
de
took
And
long
team
season
family
see
right
same
called
name
because
film
don
10
found
much
school
##es
going
won
place
away
We
day
left
John
000
hand
since
World
these
how
make
number
each
life
area
man
four
go
No
here
very
National
##m
played
released
never
began
States
album
home
last
too
held
several
May
own
##on
take
end
School
##h
ll
series
What
want
use
another
city
When
2010
side
At
may
That
came
face
June
think
game
those
high
March
early
September
##al
2011
looked
July
state
small
thought
went
January
October
##u
based
August
##us
world
good
April
York
us
12
2012
2008
For
2009
group
along
few
South
little
##k
following
November
something
2013
December
set
2007
old
2006
2014
located
##an
music
County
City
former
##in
room
ve
next
All
##man
got
father
house
##g
body
15
20
18
started
If
2015
town
our
line
War
large
population
named
British
company
member
five
My
single
##en
age
State
moved
February
11
Her
should
century
government
built
come
best
show
However
within
look
men
door
without
need
wasn
2016
water
One
system
knew
every
died
League
turned
asked
North
St
wanted
building
received
song
served
though
felt
##ia
station
band
##ers
local
public
himself
different
death
say
##1
30
##2
2005
16
night
behind
children
English
members
near
saw
together
son
14
voice
village
13
hands
help
##3
due
French
London
top
told
open
published
third
2017
play
across
During
put
final
often
include
25
##le
main
having
2004
once
ever
let
book
led
gave
late
front
find
club
##4
German
included
species
College
form
opened
mother
women
enough
West
must
2000
power
really
17
making
half
##6
order
might
##is
given
million
times
days
point
full
service
With
km
major
##7
original
become
seen
II
north
six
##te
love
##0
national
International
##5
24
So
District
lost
run
couldn
career
always
##9
2003
##th
country
##z
House
air
tell
south
worked
woman
player
##A
almost
war
River
##ic
married
continued
Then
James
close
black
short
##8
##na
using
history
returned
light
car
##ra
sure
William
things
General
##ry
2002
better
support
100
among
From
feet
King
anything
21
19
established
district
2001
feel
great
##ton
level
Cup
These
written
games
others
already
title
story
##p
law
thing
US
record
role
however
By
students
England
white
control
least
inside
land
##C
22
give
community
hard
##ie
non
##c
produced
George
round
period
Park
business
various
##ne
does
present
wife
far
taken
per
reached
David
able
version
working
young
live
created
joined
East
living
appeared
case
High
done
23
important
President
Award
France
position
office
looking
total
general
class
To
production
##S
football
party
brother
keep
mind
free
Street
hair
announced
development
either
nothing
moment
Church
followed
wrote
why
India
San
election
1999
lead
How
##ch
##rs
words
European
course
considered
America
arms
Army
political
##la
28
26
west
east
ground
further
church
less
site
First
Not
Australia
toward
California
##ness
described
works
An
Council
heart
past
military
27
##or
heard
field
human
soon
founded
1998
playing
trying
##x
##ist
##ta
television
mouth
although
taking
win
fire
Division
##ity
Party
Royal
program
Some
Don
Association
According
tried
TV
Paul
outside
daughter
Best
While
someone
match
recorded
Canada
closed
region
Air
above
months
elected
##da
##ian
road
##ar
brought
move
1997
leave
##um
Thomas
1996
am
low
Robert
formed
person
services
points
Mr
miles
##b
stop
rest
doing
needed
international
release
floor
start
sound
call
killed
real
dark
research
finished
language
Michael
professional
change
sent
50
upon
29
track
hit
event
2018
term
example
Germany
similar
return
##ism
fact
pulled
stood
says
ran
information
yet
result
developed
girl
##re
God
1995
areas
signed
decided
##ment
Company
seemed
##el
co
turn
race
common
video
Charles
Indian
##ation
blood
art
red
##able
added
rather
1994
met
director
addition
design
average
minutes
##ies
##ted
available
bed
coming
friend
idea
kind
Union
Road
remained
##ting
everything
##ma
running
care
finally
Chinese
appointed
1992
Australian
##ley
popular
mean
teams
probably
##land
usually
project
social
Championship
possible
word
Russian
instead
mi
herself
##T
Peter
Hall
Center
seat
style
money
1993
else
Department
table
Music
current
31
features
special
events
character
Two
square
sold
debut
##v
process
Although
Since
##ka
40
Central
currently
education
placed
lot
China
quickly
forward
seven
##ling
Europe
arm
performed
Japanese
1991
Henry
Now
Dr
##ion
week
Group
myself
big
UK
Washington
ten
deep
1990
Club
Japan
space
La
directed
smile
episode
hours
whole
##de
##less
Why
wouldn
designed
strong
training
changed
Society
stage
involved
hadn
towards
leading
police
eight
kept
Institute
study
largest
child
eventually
private
modern
Court
throughout
getting
originally
attack
##E
talk
Great
longer
songs
alone
##ine
wide
dead
walked
shot
##ri
Oh
force
##st
Art
today
friends
Island
Richard
1989
center
construction
believe
size
White
ship
completed
##B
gone
Just
rock
sat
##R
radio
below
entire
families
league
includes
type
lived
official
range
hold
featured
Most
##ter
president
passed
means
##f
forces
lips
Mary
Do
guitar
##ce
food
wall
Of
spent
Its
performance
hear
##P
Western
reported
sister
##et
morning
##M
especially
##ive
Minister
itself
post
bit
groups
1988
##tion
Black
##ng
Well
raised
sometimes
Canadian
Paris
Spanish
replaced
schools
Academy
leaving
central
female
Christian
Jack
whose
college
onto
provided
##D
##ville
players
actually
stopped
##son
Museum
doesn
##ts
books
fight
allowed
##ur
beginning
Records
awarded
parents
coach
##os
Red
saying
##ck
Smith
Yes
Lake
##L
aircraft
1987
##ble
previous
ft
action
Italian
African
happened
vocals
Act
future
court
##ge
1986
degree
phone
##ro
Is
countries
winning
breath
Love
river
matter
Lord
Other
list
self
parts
##ate
provide
cut
shows
plan
1st
interest
##ized
Africa
stated
Sir
fell
owned
earlier
ended
competition
attention
1985
lower
nearly
bad
older
stay
Saint
##se
certain
1984
fingers
blue
try
fourth
Grand
##as
king
##nt
makes
chest
movement
states
moving
data
introduced
model
date
section
Los
deal
##I
skin
entered
middle
success
Texas
##w
summer
island
##N
Republic
length
husband
1980
##ey
reason
anyone
forced
via
base
500
job
covered
Festival
Roman
successful
rights
cover
Man
writing
Ireland
##F
related
goal
takes
buildings
true
weeks
1983
Because
opening
novel
ISBN
meet
gold
##ous
mid
km²
standing
Football
Chicago
shook
whom
##ki
1982
Day
feeling
scored
boy
higher
Force
leader
heavy
fall
question
sense
army
Second
energy
meeting
themselves
kill
##am
board
census
##ya
##ns
mine
meant
market
required
battle
campaign
attended
approximately
Kingdom
runs
active
##ha
contract
clear
previously
health
1979
Arts
complete
Catholic
couple
units
##ll
##ty
Committee
shoulder
sea
systems
listed
##O
caught
tournament
##G
northern
author
Film
Your
##men
holding
offered
personal
1981
southern
artist
traditional
studio
200
capital
##ful
regular
ask
giving
organization
month
news
Are
read
managed
helped
studied
student
defeated
natural
industry
Year
noted
decision
Government
quite
##id
smiled
1972
Maybe
tracks
##ke
Mark
al
media
engine
hour
Their
relationship
plays
property
structure
1976
ago
Hill
Martin
1978
ready
Many
Like
Bay
immediately
generally
Italy
Greek
practice
caused
division
significant
Joseph
speed
Let
thinking
completely
1974
primary
mostly
##field
##K
1975
##to
Even
writer
##led
dropped
magazine
collection
understand
route
highest
particular
films
lines
network
Science
loss
carried
direction
green
1977
location
producer
according
Women
Queen
neck
thus
independent
view
1970
Angeles
Soviet
distance
problem
Board
tour
western
income
appearance
access
Mexico
nodded
street
surface
arrived
believed
Old
1968
1973
becoming
whether
1945
figure
singer
stand
Following
issue
window
wrong
pain
everyone
lives
issues
park
slowly
la
act
##va
bring
Lee
operations
key
comes
fine
cold
famous
Navy
1971
Me
additional
individual
##ner
Zealand
goals
county
contains
Service
minute
2nd
reach
talking
particularly
##ham
movie
Director
glass
paper
studies
##co
railway
standard
Education
45
represented
Chief
Louis
launched
Star
terms
60
1969
experience
watched
Another
Press
Tom
staff
starting
subject
break
Virginia
nine
eye
##age
evidence
foot
##est
companies
Prince
##V
gun
create
Big
People
guy
Green
simply
numerous
##line
increased
twenty
##ga
##do
1967
award
officer
stone
Before
material
Northern
grew
male
plant
Life
legs
step
Al
unit
35
except
answer
##U
report
response
Edward
commercial
edition
trade
science
##ca
Irish
Law
shown
rate
failed
##ni
remains
changes
mm
limited
larger
Later
cause
waiting
Time
##wood
cost
Bill
manager
activities
likely
allow
operated
retired
##ping
65
directly
Who
associated
effect
hell
Florida
straight
hot
Valley
management
girls
expected
eastern
Mike
chance
cast
centre
chair
hurt
problems
##li
walk
programs
Team
characters
Battle
edge
pay
maybe
corner
majority
medical
Joe
Summer
##io
attempt
Pacific
command
Radio
##by
names
municipality
1964
train
economic
Brown
feature
sex
source
agreed
remember
Three
1966
1965
Pennsylvania
victory
senior
annual
III
Southern
results
Sam
serving
religious
Jones
appears
##der
despite
claimed
Both
musical
matches
fast
security
selected
Young
double
complex
hospital
chief
Times
##ve
Championships
filled
Public
Despite
beautiful
Research
plans
Province
##ally
Wales
##ko
artists
metal
nearby
Spain
##il
32
houses
supported
piece
##no
stared
recording
nature
legal
Russia
##ization
remaining
looks
##sh
bridge
closer
cases
scene
marriage
Little
##é
uses
Earth
specific
Frank
theory
Good
discovered
referred
bass
culture
university
presented
Congress
##go
metres
continue
1960
isn
Awards
meaning
cell
composed
separate
Series
forms
Blue
cross
##tor
increase
test
computer
slightly
Where
Jewish
Town
tree
status
1944
variety
responsible
pretty
initially
##way
realized
pass
provides
Captain
Alexander
recent
score
broke
Scott
drive
financial
showed
Line
stories
ordered
soldiers
genus
operation
gaze
sitting
society
Only
hope
actor
follow
Empire
Yeah
technology
happy
focus
policy
spread
situation
##ford
##ba
Mrs
watch
Can
1963
Commission
touch
earned
troops
Under
1962
individuals
cannot
19th
##lin
mile
expression
exactly
suddenly
weight
dance
stepped
places
appear
difficult
Railway
anti
numbers
kilometres
star
##ier
department
ice
Britain
removed
Once
##lo
Boston
value
##ant
mission
trees
Order
sports
join
serve
Major
poor
Poland
mainly
Theatre
pushed
Station
##it
Lady
federal
silver
##ler
foreign
##ard
Eastern
##den
box
hall
subsequently
lies
acquired
1942
ancient
CD
History
Jean
beyond
##ger
El
##les
growing
championship
native
Parliament
Williams
watching
direct
overall
offer
Also
80
Secretary
spoke
Latin
ability
##ated
safe
presence
##ial
headed
regional
planned
1961
Johnson
throat
consists
##W
extended
Or
bar
walls
Chris
stations
politician
Olympics
influence
share
fighting
speak
hundred
Carolina
die
stars
##tic
color
Chapter
##ish
fear
sleep
goes
Francisco
oil
Bank
sign
physical
##berg
Dutch
seasons
##rd
Games
Governor
sorry
lack
Centre
memory
baby
smaller
charge
Did
multiple
ships
shirt
Assembly
amount
leaves
3rd
Foundation
conditions
1943
Rock
Democratic
Daniel
##at
winner
products
##ina
store
latter
Professor
civil
prior
host
1956
soft
vote
needs
Each
rules
1958
pressure
letter
normal
proposed
levels
records
1959
paid
intended
Victoria
purpose
okay
historical
issued
1980s
broadcast
rule
simple
picked
firm
Sea
1941
Elizabeth
1940
serious
featuring
highly
graduated
mentioned
choice
1948
replied
percent
Scotland
##hi
females
constructed
1957
settled
Steve
recognized
cities
crew
glanced
kiss
competed
flight
knowledge
editor
More
Conference
##H
fifth
elements
##ee
##tes
function
newspaper
recently
Miss
cultural
brown
twice
Office
1939
truth
Creek
1946
households
USA
1950
quality
##tt
border
seconds
destroyed
pre
wait
ahead
build
image
90
cars
##mi
33
promoted
professor
et
bank
medal
text
broken
Middle
revealed
sides
wing
seems
channel
1970s
Ben
loved
effort
officers
Will
##ff
70
Israel
Jim
upper
fully
label
Jr
assistant
powerful
pair
positive
##ary
gives
1955
20th
races
remain
kitchen
primarily
##ti
Sydney
easy
Tour
whispered
buried
300
News
Polish
1952
Duke
Columbia
produce
accepted
00
approach
minor
1947
Special
44
Asian
basis
visit
Fort
Civil
finish
formerly
beside
leaned
##ite
median
rose
coast
effects
supposed
Cross
##hip
Corps
residents
Jackson
##ir
Bob
basketball
36
Asia
seem
Bishop
Book
##ber
ring
##ze
owner
BBC
##ja
transferred
acting
De
appearances
walking
Le
press
grabbed
1954
officially
1953
##pe
risk
taught
review
##X
lay
##well
council
Avenue
seeing
losing
Ohio
Super
province
ones
travel
##sa
projects
equipment
spot
Berlin
administrative
heat
potential
shut
capacity
elections
growth
fought
Republican
mixed
Andrew
teacher
turning
strength
shoulders
beat
wind
1949
Health
follows
camp
suggested
perhaps
Alex
mountain
contact
divided
candidate
fellow
34
Show
necessary
workers
ball
horse
ways
questions
protect
gas
activity
younger
bottom
founder
Scottish
screen
treatment
easily
com
##house
dedicated
Master
warm
Night
Georgia
Long
von
##me
perfect
website
1960s
piano
efforts
##ide
Tony
sort
offers
Development
Simon
executive
##nd
save
Over
Senate
1951
1990s
draw
master
Police
##ius
renamed
boys
initial
prominent
damage
Co
##ov
##za
online
begin
occurred
captured
youth
Top
account
tells
Justice
conducted
forest
##town
bought
teeth
Jersey
##di
purchased
agreement
Michigan
##ure
campus
prison
becomes
product
secret
guess
Route
huge
types
drums
64
split
defeat
estate
housing
##ot
brothers
Coast
declared
happen
titled
therefore
sun
commonly
alongside
Stadium
library
Home
article
steps
telling
slow
assigned
refused
laughed
wants
Nick
wearing
Rome
Open
##ah
Hospital
pointed
Taylor
lifted
escape
participated
##j
drama
parish
Santa
##per
organized
mass
pick
Airport
gets
Library
unable
pull
Live
##ging
surrounding
##ries
focused
Adam
facilities
##ning
##ny
38
##ring
notable
era
connected
gained
operating
laid
Regiment
branch
defined
Christmas
machine
Four
academic
Iran
adopted
concept
Men
compared
search
traffic
Max
Maria
greater
##ding
widely
##burg
serves
1938
37
Go
hotel
shared
typically
scale
1936
leg
suffered
yards
pieces
Ministry
Wilson
episodes
empty
1918
safety
continues
yellow
historic
settlement
400
Come
Corporation
enemy
content
picture
evening
territory
method
trial
solo
driver
Here
##ls
entrance
Prize
spring
whatever
##ent
75
##ji
reading
Arthur
##cy
Our
clothes
Prime
Illinois
Kong
code
##ria
sit
Harry
Federal
chosen
administration
bodies
begins
stomach
Though
seats
Hong
density
Sun
leaders
Field
museum
chart
platform
languages
##ron
birth
holds
Gold
##un
fish
combined
##ps
4th
1937
largely
captain
trust
Game
van
boat
Oxford
basic
beneath
Islands
painting
nice
Toronto
path
males
sources
block
conference
parties
murder
clubs
crowd
calling
About
Business
peace
knows
lake
speaking
stayed
Brazil
allowing
Born
unique
thick
Technology
##que
receive
des
semi
alive
noticed
format
##ped
coffee
digital
##ned
handed
guard
tall
faced
setting
plants
partner
claim
reduced
temple
animals
determined
classes
##out
estimated
##ad
Olympic
providing
Massachusetts
learned
Inc
Philadelphia
Social
carry
42
possibly
hosted
tonight
respectively
Today
shape
Mount
roles
designated
brain
etc
Korea
thoughts
Brian
Highway
doors
background
drew
models
footballer
tone
turns
1935
quiet
tower
wood
bus
write
software
weapons
flat
marked
1920
newly
tight
Eric
finger
Journal
FC
Van
rise
critical
Atlantic
granted
returning
communities
humans
quick
39
48
ranked
sight
pop
Swedish
Stephen
card
analysis
attacked
##wa
Sunday
identified
Jason
champion
situated
1930
expanded
tears
##nce
reaching
Davis
protection
Emperor
positions
nominated
Bridge
tax
dress
allows
avoid
leadership
killing
actress
guest
steel
knowing
electric
cells
disease
grade
unknown
##ium
resulted
Pakistan
confirmed
##ged
tongue
covers
##Y
roof
entirely
applied
votes
drink
interview
exchange
Township
reasons
##ised
page
calls
dog
agent
nose
teaching
##ds
##ists
advanced
wish
Golden
existing
vehicle
del
1919
develop
attacks
pressed
Sports
planning
resulting
facility
Sarah
notes
1933
Class
Historic
winter
##mo
audience
Community
household
Netherlands
creation
##ize
keeping
1914
claims
dry
guys
opposite
##ak
explained
Ontario
secondary
difference
Francis
actions
organizations
yard
animal
Up
Lewis
titles
Several
1934
Ryan
55
Supreme
rolled
1917
distribution
figures
afraid
rural
yourself
##rt
sets
barely
Instead
passing
awards
41
silence
authority
occupied
environment
windows
engineering
surprised
flying
crime
reports
Mountain
powers
driving
succeeded
reviews
1929
Head
missing
Song
Jesus
opportunity
inspired
ends
albums
conversation
impact
injury
surprise
billion
learning
heavily
oldest
union
creating
##ky
festival
literature
letters
sexual
##tte
apartment
Final
comedy
nation
orders
##sen
contemporary
Power
drawn
existence
connection
##ating
Post
Junior
remembered
message
Medal
castle
note
engineer
sounds
Beach
crossed
##dy
ear
scientific
sales
##ai
theme
starts
clearly
##ut
trouble
##gan
bag
##han
BC
sons
1928
silent
versions
daily
Studies
ending
Rose
guns
1932
headquarters
reference
obtained
Squadron
concert
none
du
Among
##don
prevent
Member
answered
staring
Between
##lla
portion
drug
liked
association
performances
Nations
formation
Castle
lose
learn
scoring
relatively
quarter
47
Premier
##ors
Sweden
baseball
attempted
trip
worth
perform
airport
fields
enter
honor
Medical
rear
commander
officials
condition
supply
materials
52
Anna
volume
threw
Persian
43
interested
Gallery
achieved
visited
laws
relief
Area
Matt
singles
Lieutenant
Country
fans
Cambridge
sky
Miller
effective
tradition
Port
##ana
minister
extra
entitled
System
sites
authorities
acres
committee
racing
1931
desk
trains
ass
weren
Family
farm
##ance
industrial
##head
iron
49
abandoned
Out
Holy
chairman
waited
frequently
display
Light
transport
starring
Patrick
Engineering
eat
FM
judge
reaction
centuries
price
##tive
Korean
defense
Get
arrested
1927
send
urban
##ss
pilot
Okay
Media
reality
arts
soul
thirty
##be
catch
generation
##nes
apart
Anne
drop
See
##ving
sixth
trained
Management
magic
cm
height
Fox
Ian
resources
vampire
principal
Was
haven
##au
Walter
Albert
rich
1922
causing
entry
##ell
shortly
46
worry
doctor
composer
rank
Network
bright
showing
regions
1924
wave
carrying
kissed
finding
missed
Earl
lying
target
vehicles
Military
controlled
dinner
##board
briefly
lyrics
motion
duty
strange
attempts
invited
kg
villages
5th
Land
##mer
Christ
prepared
twelve
check
thousand
earth
copies
en
transfer
citizens
Americans
politics
nor
theatre
Project
##bo
clean
rooms
laugh
##ran
application
contained
anyway
containing
Sciences
1925
rare
speech
exist
1950s
falling
passenger
##im
stands
51
##ol
##ow
phase
governor
kids
details
methods
Vice
employed
performing
counter
Jane
heads
Channel
wine
opposition
aged
1912
Every
1926
highway
##ura
1921
aired
978
permanent
Forest
finds
joint
approved
##pur
brief
doubt
acts
brand
wild
closely
Ford
Kevin
chose
shall
port
sweet
fun
asking
Be
##bury
sought
Dave
Mexican
mom
Right
Howard
Moscow
Charlie
Stone
##mann
admitted
##ver
wooden
1923
Officer
relations
Hot
combat
publication
chain
shop
inhabitants
proved
ideas
address
1915
Memorial
explain
increasing
conflict
Anthony
Melbourne
narrow
temperature
slid
1916
worse
selling
documentary
Ali
Ray
opposed
vision
dad
extensive
Infantry
commissioned
Doctor
offices
programming
core
respect
storm
##pa
##ay
##om
promotion
der
struck
anymore
shit
Region
receiving
DVD
alternative
##ue
ride
maximum
1910
##ious
Third
Affairs
cancer
Executive
##op
dream
18th
Due
##ker
##worth
economy
IV
Billboard
identity
subsequent
statement
skills
##back
funding
##ons
Round
Foreign
truck
Please
lights
wondered
##ms
frame
yes
Still
districts
fiction
Colonel
converted
150
grown
accident
critics
fit
Information
architecture
Point
Five
armed
Billy
poet
functions
consisted
suit
Turkish
Band
object
desire
##ities
sounded
flow
Norwegian
articles
Marie
pulling
thin
singing
Hunter
Human
Battalion
Federation
Kim
origin
represent
dangerous
weather
fuel
ex
##sing
Last
bedroom
aid
knees
Alan
angry
assumed
plane
Something
founding
concerned
global
Fire
di
please
Portuguese
touched
Roger
nuclear
Register
Jeff
fixed
royal
lie
finals
NFL
Manchester
towns
handle
shaped
Chairman
Dean
launch
understanding
Children
violence
failure
sector
Brigade
wrapped
fired
sharp
tiny
developing
expansion
Free
institutions
technical
Nothing
otherwise
Main
inch
Saturday
wore
Senior
attached
cheek
representing
Kansas
##chi
##kin
actual
advantage
Dan
Austria
##dale
hoped
multi
squad
Norway
streets
1913
Services
hired
grow
pp
wear
painted
Minnesota
stuff
Building
54
Philippines
1900
##ties
educational
Khan
Magazine
##port
Cape
signal
Gordon
sword
Anderson
cool
engaged
Commander
images
Upon
tied
Security
cup
rail
Vietnam
successfully
##red
Muslim
gain
bringing
Native
hers
occurs
negative
Philip
Kelly
Colorado
category
##lan
600
Have
supporting
wet
56
stairs
Grace
observed
##ung
funds
restaurant
1911
Jews
##ments
##che
Jake
Back
53
asks
journalist
accept
bands
bronze
helping
##ice
decades
mayor
survived
usual
influenced
Douglas
Hey
##izing
surrounded
retirement
Temple
derived
Pope
registered
producing
##ral
structures
Johnny
contributed
finishing
buy
specifically
##king
patients
Jordan
internal
regarding
Samuel
Clark
##q
afternoon
Finally
scenes
notice
refers
quietly
threat
Water
Those
Hamilton
promise
freedom
Turkey
breaking
maintained
device
lap
ultimately
Champion
Tim
Bureau
expressed
investigation
extremely
capable
qualified
recognition
items
##up
Indiana
adult
rain
greatest
architect
Morgan
dressed
equal
Antonio
collected
drove
occur
Grant
graduate
anger
Sri
worried
standards
##ore
injured
somewhere
damn
Singapore
Jimmy
pocket
homes
stock
religion
aware
regarded
Wisconsin
##tra
passes
fresh
##ea
argued
Ltd
EP
Diego
importance
Census
incident
Egypt
Missouri
domestic
leads
ceremony
Early
camera
Father
challenge
Switzerland
lands
familiar
hearing
spend
educated
Tennessee
Thank
##ram
Thus
concern
putting
inches
map
classical
Allen
crazy
valley
Space
softly
##my
pool
worldwide
climate
experienced
neighborhood
scheduled
neither
fleet
1908
Girl
##J
Part
engines
locations
darkness
Revolution
establishment
lawyer
objects
apparently
Queensland
Entertainment
bill
mark
Television
##ong
pale
demand
Hotel
selection
##rn
##ino
Labour
Liberal
burned
Mom
merged
Arizona
request
##lia
##light
hole
employees
##ical
incorporated
95
independence
Walker
covering
joining
##ica
task
papers
backing
sell
biggest
6th
strike
establish
##ō
gently
59
Orchestra
Winter
protein
Juan
locked
dates
Boy
aren
shooting
Luke
solid
charged
Prior
resigned
interior
garden
spoken
improve
wonder
promote
hidden
##med
combination
Hollywood
Swiss
consider
##ks
Lincoln
literary
drawing
Marine
weapon
Victor
Trust
Maryland
properties
##ara
exhibition
understood
hung
Tell
installed
loud
fashion
affected
junior
landing
flowers
##he
Internet
beach
Heart
tries
Mayor
programme
800
wins
noise
##ster
##ory
58
contain
fair
delivered
##ul
wedding
Square
advance
behavior
Program
Oregon
##rk
residence
realize
certainly
hill
Houston
57
indicated
##water
wounded
Village
massive
Moore
thousands
personnel
dating
opera
poetry
##her
causes
feelings
Frederick
applications
push
approached
foundation
pleasure
sale
fly
gotten
northeast
costs
raise
paintings
##ney
views
horses
formal
Arab
hockey
typical
representative
rising
##des
clock
stadium
shifted
Dad
peak
Fame
vice
disappeared
users
Way
Naval
prize
hoping
values
evil
Bell
consisting
##ón
Regional
##ics
improved
circle
carefully
broad
##ini
Fine
maintain
operate
offering
mention
Death
stupid
Through
Princess
attend
interests
ruled
somewhat
wings
roads
grounds
##ual
Greece
Champions
facing
hide
voted
require
Dark
Matthew
credit
sighed
separated
manner
##ile
Boys
1905
committed
impossible
lip
candidates
7th
Bruce
arranged
Islamic
courses
criminal
##ened
smell
##bed
08
consecutive
##ening
proper
purchase
weak
Prix
1906
aside
introduction
Look
##ku
changing
budget
resistance
factory
Forces
agency
##tone
northwest
user
1907
stating
##one
sport
Design
environmental
cards
concluded
Carl
250
accused
##ology
Girls
sick
intelligence
Margaret
responsibility
Guard
##tus
17th
sq
goods
1909
hate
##ek
capture
stores
Gray
comic
Modern
Silver
Andy
electronic
wheel
##ied
Deputy
##bs
Czech
zone
choose
constant
reserve
##lle
Tokyo
spirit
sub
degrees
flew
pattern
compete
Dance
##ik
secretary
Imperial
99
reduce
Hungarian
confused
##rin
Pierre
describes
regularly
Rachel
85
landed
passengers
##ise
##sis
historian
meters
Youth
##ud
participate
##cing
arrival
tired
Mother
##gy
jumped
Kentucky
faces
feed
Israeli
Ocean
##Q
##án
plus
snow
techniques
plate
sections
falls
jazz
##ris
tank
loan
repeated
opinion
##res
unless
rugby
journal
Lawrence
moments
shock
distributed
##ded
adjacent
Argentina
crossing
uncle
##ric
Detroit
communication
mental
tomorrow
session
Emma
Without
##gen
Miami
charges
Administration
hits
coat
protected
Cole
invasion
priest
09
Gary
enjoyed
plot
measure
bound
friendly
throw
musician
##lon
##ins
Age
knife
damaged
birds
driven
lit
ears
breathing
Arabic
Jan
faster
Jonathan
##gate
Independent
starred
Harris
teachers
Alice
sequence
mph
file
translated
decide
determine
Review
documents
sudden
threatened
##ft
bear
distinct
decade
burning
##sky
1930s
replace
begun
extension
##time
1904
equivalent
accompanied
Christopher
Danish
##ye
Besides
##more
persons
fallen
Rural
roughly
saved
willing
ensure
Belgium
05
musicians
##ang
giant
Six
Retrieved
worst
purposes
##bly
mountains
seventh
slipped
brick
07
##py
somehow
Carter
Iraq
cousin
favor
islands
journey
FIFA
contrast
planet
vs
calm
##ings
concrete
branches
gray
profit
Russell
##ae
##ux
##ens
philosophy
businesses
talked
parking
##ming
owners
Place
##tle
agricultural
Kate
06
southeast
draft
Eddie
earliest
forget
Dallas
Commonwealth
edited
66
inner
ed
operates
16th
Harvard
assistance
##si
designs
Take
bathroom
indicate
CEO
Command
Louisiana
1902
Dublin
Books
1901
tropical
1903
##tors
Places
tie
progress
forming
solution
62
letting
##ery
studying
##jo
duties
Baseball
taste
Reserve
##ru
Ann
##gh
visible
##vi
notably
link
NCAA
southwest
Never
storage
mobile
writers
favorite
Pro
pages
truly
count
##tta
string
kid
98
Ross
row
##idae
Kennedy
##tan
Hockey
hip
waist
grandfather
listen
##ho
feels
busy
72
stream
obvious
cycle
shaking
Knight
##ren
Carlos
painter
trail
web
linked
04
Palace
existed
##ira
responded
closing
End
examples
Marshall
weekend
jaw
Denmark
lady
township
medium
chin
Story
option
fifteen
Moon
represents
makeup
investment
jump
childhood
Oklahoma
roll
normally
Ten
Operation
Graham
Seattle
Atlanta
paused
promised
rejected
treated
returns
flag
##ita
Hungary
danger
glad
movements
visual
subjects
credited
soldier
Norman
ill
translation
José
Quebec
medicine
warning
theater
praised
municipal
01
commune
churches
acid
folk
8th
testing
add
survive
Sound
devices
residential
severe
presidential
Mississippi
Austin
Perhaps
Charlotte
hanging
Montreal
grin
##ten
racial
partnership
shoot
shift
##nie
Les
downtown
Brothers
Garden
matters
restored
mirror
forever
winners
rapidly
poverty
##ible
Until
DC
faith
hundreds
Real
Ukraine
Nelson
balance
Adams
contest
relative
ethnic
Edinburgh
composition
##nts
emergency
##van
marine
reputation
Down
pack
12th
Communist
Mountains
pro
stages
measures
##ld
ABC
Li
victims
benefit
Iowa
Broadway
gathered
rating
Defense
classic
##ily
ceiling
##ions
snapped
Everything
constituency
Franklin
Thompson
Stewart
entering
Judge
forth
##sk
wanting
smiling
moves
tunnel
premiered
grass
unusual
Ukrainian
bird
Friday
tail
Portugal
coal
element
Fred
guards
Senator
collaboration
beauty
Wood
chemical
beer
justice
signs
##Z
sees
##zi
Puerto
##zed
96
smooth
Bowl
gift
limit
97
heading
Source
wake
requires
Ed
Constitution
factor
Lane
factors
adding
Note
cleared
pictures
pink
##ola
Kent
Local
Singh
moth
Ty
##ture
courts
Seven
temporary
involving
Vienna
emerged
fishing
agree
defensive
stuck
secure
Tamil
##ick
bottle
03
Player
instruments
Spring
patient
flesh
contributions
cry
Malaysia
120
Global
da
Alabama
Within
##work
debuted
expect
Cleveland
concerns
retained
horror
10th
spending
Peace
Transport
grand
Crown
instance
institution
acted
Hills
mounted
Campbell
shouldn
1898
##ably
chamber
soil
88
Ethan
sand
cheeks
##gi
marry
61
weekly
classification
DNA
Elementary
Roy
definitely
Soon
Rights
gate
suggests
aspects
imagine
golden
beating
Studios
Warren
differences
significantly
glance
occasionally
##od
clothing
Assistant
depth
sending
possibility
mode
prisoners
requirements
daughters
dated
Representatives
prove
guilty
interesting
smoke
cricket
93
##ates
rescue
Connecticut
underground
Opera
13th
reign
##ski
thanks
leather
equipped
routes
fan
##ans
script
Wright
bishop
Welsh
jobs
faculty
eleven
Railroad
appearing
anniversary
Upper
##down
anywhere
Rugby
Metropolitan
Meanwhile
Nicholas
champions
forehead
mining
drinking
76
Jerry
membership
Brazilian
Wild
Rio
scheme
Unlike
strongly
##bility
fill
##rian
easier
MP
Hell
##sha
Stanley
banks
Baron
##ique
Robinson
67
Gabriel
Austrian
Wayne
exposed
##wan
Alfred
1899
manage
mix
visitors
eating
##rate
Sean
commission
Cemetery
policies
Camp
parallel
traveled
guitarist
02
supplies
couples
poem
blocks
Rick
Training
Energy
achieve
appointment
Wing
Jamie
63
novels
##em
1890
songwriter
Base
Jay
##gar
naval
scared
miss
labor
technique
crisis
Additionally
backed
destroy
seriously
tools
tennis
91
god
##ington
continuing
steam
obviously
Bobby
adapted
fifty
enjoy
Jacob
publishing
column
##ular
Baltimore
Donald
Liverpool
92
drugs
movies
##ock
Heritage
##je
##istic
vocal
strategy
gene
advice
##bi
Ottoman
riding
##side
Agency
Indonesia
11th
laughing
sleeping
und
muttered
listening
deck
tip
77
ownership
grey
Claire
deeply
provincial
popularity
Cooper
##á
Emily
##sed
designer
Murray
describe
Danny
Around
Parker
##dae
68
rates
suffering
considerable
78
nervous
powered
tons
circumstances
wished
belonged
Pittsburgh
flows
9th
##use
belt
81
useful
15th
context
List
Dead
Iron
seek
Season
worn
frequency
legislation
replacement
memories
Tournament
Again
Barry
organisation
copy
Gulf
waters
meets
struggle
Oliver
1895
Susan
protest
kick
Alliance
components
1896
Tower
Windows
demanded
regiment
sentence
Woman
Logan
Referee
hosts
debate
knee
Blood
##oo
universities
practices
Ward
ranking
correct
happening
Vincent
attracted
classified
##stic
processes
immediate
waste
increasingly
Helen
##po
Lucas
Phil
organ
1897
tea
suicide
actors
lb
crash
approval
waves
##ered
hated
grip
700
amongst
69
74
hunting
dying
lasted
illegal
##rum
stare
defeating
##gs
shrugged
°C
Jon
Count
Orleans
94
affairs
formally
##and
##ves
criticized
Disney
Vol
successor
tests
scholars
palace
Would
celebrated
rounds
grant
Schools
Such
commanded
demon
Romania
##all
Karl
71
##yn
84
Daily
totally
Medicine
fruit
Die
upset
Lower
Conservative
14th
Mitchell
escaped
shoes
Morris
##tz
queen
harder
prime
Thanks
indeed
Sky
authors
rocks
definition
Nazi
accounts
printed
experiences
##ters
divisions
Cathedral
denied
depending
Express
##let
73
appeal
loose
colors
filed
##isation
gender
##ew
throne
forests
Finland
domain
boats
Baker
squadron
shore
remove
##ification
careful
wound
railroad
82
seeking
agents
##ved
Blues
##off
customers
ignored
net
##ction
hiding
Originally
declined
##ess
franchise
eliminated
NBA
merely
pure
appropriate
visiting
forty
markets
offensive
coverage
cave
##nia
spell
##lar
Benjamin
##ire
Convention
filmed
Trade
##sy
##ct
Having
palm
1889
Evans
intense
plastic
Julia
document
jeans
vessel
SR
##fully
proposal
Birmingham
le
##ative
assembly
89
fund
lock
1893
AD
meetings
occupation
modified
Years
odd
aimed
reform
Mission
Works
shake
cat
exception
convinced
executed
pushing
dollars
replacing
soccer
manufacturing
##ros
expensive
kicked
minimum
Josh
coastal
Chase
ha
Thailand
publications
deputy
Sometimes
Angel
effectively
##illa
criticism
conduct
Serbian
landscape
NY
absence
passage
##ula
Blake
Indians
1892
admit
Trophy
##ball
Next
##rated
##ians
charts
kW
orchestra
79
heritage
1894
rough
exists
boundary
Bible
Legislative
moon
medieval
##over
cutting
print
##ett
birthday
##hood
destruction
Julian
injuries
influential
sisters
raising
statue
colour
dancing
characteristics
orange
##ok
##aries
Ken
colonial
twin
Larry
surviving
##shi
Barbara
personality
entertainment
assault
##ering
talent
happens
license
86
couch
Century
soundtrack
shower
swimming
cash
Staff
bent
1885
bay
lunch
##lus
dozen
vessels
CBS
greatly
critic
Test
symbol
panel
shell
output
reaches
87
Front
motor
ocean
##era
##ala
maintenance
violent
scent
Limited
Las
Hope
Theater
Which
survey
Robin
recordings
compilation
##ward
bomb
insurance
Authority
sponsored
satellite
Jazz
refer
stronger
blow
whilst
Wrestling
suggest
##rie
climbed
##els
voices
shopping
1891
Neil
discovery
##vo
##ations
burst
Baby
peaked
Brooklyn
knocked
lift
##try
false
nations
Hugh
Catherine
preserved
distinguished
terminal
resolution
ratio
pants
cited
competitions
completion
DJ
bone
uniform
schedule
shouted
83
1920s
rarely
Basketball
Taiwan
artistic
bare
vampires
arrest
Utah
Marcus
assist
gradually
qualifying
Victorian
vast
rival
Warner
Terry
Economic
##cia
losses
boss
versus
audio
runner
apply
surgery
Play
twisted
comfortable
##cs
Everyone
guests
##lt
Harrison
UEFA
lowered
occasions
##lly
##cher
chapter
youngest
eighth
Culture
##room
##stone
1888
Songs
Seth
Digital
involvement
expedition
relationships
signing
1000
fault
annually
circuit
afterwards
meat
creature
##ou
cable
Bush
##net
Hispanic
rapid
gonna
figured
extent
considering
cried
##tin
sigh
dynasty
##ration
cabinet
Richmond
stable
##zo
1864
Admiral
Unit
occasion
shares
badly
longest
##ify
Connor
extreme
wondering
girlfriend
Studio
##tions
1865
tribe
exact
muscles
hat
Luis
Orthodox
decisions
amateur
description
##lis
hips
kingdom
##ute
Portland
whereas
Bachelor
outer
discussion
partly
Arkansas
1880
dreams
perfectly
Lloyd
##bridge
asleep
##tti
Greg
permission
trading
pitch
mill
Stage
liquid
Keith
##tal
wolf
processing
stick
Jerusalem
profile
rushed
spiritual
argument
Ice
Guy
till
Delhi
roots
Section
missions
Glasgow
penalty
NBC
encouraged
identify
keyboards
##zing
##ston
disc
plain
informed
Bernard
thinks
fled
Justin
##day
newspapers
##wick
Ralph
##zer
unlike
Stars
artillery
##ified
recovered
arrangement
searching
##pers
##tory
##rus
deaths
Egyptian
diameter
##í
marketing
corporate
teach
marks
Turner
staying
hallway
Sebastian
chapel
naked
mistake
possession
1887
dominated
jacket
creative
Fellow
Falls
Defence
suspended
employment
##rry
Hebrew
Hudson
Week
Wars
recognize
Natural
controversial
Tommy
thank
Athletic
benefits
decline
intention
##ets
Lost
Wall
participation
elevation
supports
parliament
1861
concentration
Movement
##IS
competing
stops
behalf
##mm
limits
funded
discuss
Collins
departure
obtain
woods
latest
universe
alcohol
Laura
rush
blade
funny
Dennis
forgotten
Amy
Symphony
apparent
graduating
1862
Rob
Grey
collections
Mason
emotions
##ugh
literally
Any
counties
1863
nomination
fighter
habitat
respond
external
Capital
exit
Video
carbon
sharing
Bad
opportunities
Perry
photo
##mus
Orange
posted
remainder
transportation
portrayed
Labor
recommended
percussion
rated
Grade
rivers
partially
suspected
strip
adults
button
struggled
intersection
Canal
##ability
poems
claiming
Madrid
1886
Together
##our
Much
Vancouver
instrument
instrumental
1870
mad
angle
Control
Phoenix
Leo
Communications
mail
##ette
##ev
preferred
adaptation
alleged
discussed
deeper
##ane
Yet
Monday
volumes
thrown
Zane
##logy
displayed
rolling
dogs
Along
Todd
##ivity
withdrew
representation
belief
##sia
crown
Late
Short
hardly
grinned
romantic
Pete
##ken
networks
enemies
Colin
Eventually
Side
donated
##su
steady
grab
guide
Finnish
Milan
pregnant
controversy
reminded
1884
Stuart
##bach
##ade
Race
Belgian
LP
Production
Zone
lieutenant
infantry
Child
confusion
sang
resident
##ez
victim
1881
channels
Ron
businessman
##gle
Dick
colony
pace
producers
##ese
agencies
Craig
Lucy
Very
centers
Yorkshire
photography
##ched
Album
championships
Metro
substantial
Standard
terrible
directors
contribution
advertising
emotional
##its
layer
segment
sir
folded
Roberts
ceased
Hampshire
##ray
detailed
partners
m²
##pt
Beth
genre
commented
generated
remote
aim
Hans
credits
concerts
periods
breakfast
gay
shadow
defence
Too
Had
transition
Afghanistan
##book
eggs
defend
##lli
writes
Systems
bones
mess
seed
scientists
Shortly
Romanian
##zy
Freedom
muscle
hero
parent
agriculture
checked
Islam
Bristol
Freyja
Arena
cabin
Germans
electricity
ranks
viewed
medals
Wolf
associate
Madison
Sorry
fort
Chile
detail
widespread
attorney
boyfriend
##nan
Students
Spencer
##ig
bite
Maine
demolished
Lisa
erected
Someone
operational
Commissioner
NHL
Coach
Bar
forcing
Dream
Rico
cargo
Murphy
##fish
##ase
distant
##master
##ora
Organization
doorway
Steven
traded
electrical
frequent
##wn
Branch
Sure
1882
placing
Manhattan
attending
attributed
excellent
pounds
ruling
principles
component
Mediterranean
Vegas
machines
percentage
infrastructure
throwing
affiliated
Kings
secured
Caribbean
Track
Ted
honour
opponent
Virgin
Construction
grave
produces
Challenge
stretched
paying
murmured
##ata
integrated
waved
Nathan
##ator
transmission
videos
##yan
##hu
Nova
descent
AM
Harold
conservative
Therefore
venue
competitive
##ui
conclusion
funeral
confidence
releases
scholar
##sson
Treaty
stress
mood
##sm
Mac
residing
Action
Fund
##ship
animated
fitted
##kar
defending
voting
tend
##berry
answers
believes
##ci
helps
Aaron
##tis
themes
##lay
populations
Players
stroke
Trinity
electoral
paint
abroad
charity
keys
Fair
##pes
interrupted
participants
murdered
Days
supporters
##ab
expert
borders
mate
##llo
solar
architectural
tension
##bling
Parish
tape
operator
Cultural
Clinton
indicates
publisher
ordinary
sugar
arrive
rifle
acoustic
##uring
assets
##shire
SS
sufficient
options
HMS
Classic
bars
rebuilt
governments
Beijing
reporter
screamed
Abbey
crying
mechanical
instantly
communications
Political
cemetery
Cameron
Stop
representatives
USS
texts
mathematics
innings
civilian
Serbia
##hill
practical
patterns
dust
Faculty
debt
##end
##cus
junction
suppose
experimental
Computer
Food
wrist
abuse
dealing
bigger
cap
principle
##pin
Muhammad
Fleet
Collection
attempting
dismissed
##burn
regime
Herbert
##ua
shadows
1883
Eve
Lanka
1878
Performance
fictional
##lock
Noah
Run
Voivodeship
exercise
broadcasting
##fer
RAF
Magic
Bangladesh
suitable
##low
##del
styles
toured
Code
identical
links
insisted
110
flash
Model
slave
Derek
Rev
fairly
Greater
sole
##lands
connecting
zero
bench
##ome
switched
Fall
Owen
yours
Electric
shocked
convention
##bra
climb
memorial
swept
Racing
decides
belong
##nk
parliamentary
##und
ages
proof
##dan
delivery
1860
##ów
sad
publicly
leaning
Archbishop
dirt
##ose
categories
1876
burn
##bing
requested
Guinea
Historical
rhythm
relation
##heim
ye
pursue
merchant
##mes
lists
continuous
frowned
colored
tool
gods
involves
Duncan
photographs
Cricket
slight
Gregory
atmosphere
wider
Cook
##tar
essential
Being
FA
emperor
wealthy
nights
##bar
licensed
Hawaii
viewers
Language
load
nearest
milk
kilometers
platforms
##ys
territories
Rogers
sheet
Rangers
contested
##lation
isolated
assisted
swallowed
Small
Contemporary
Technical
Edwards
express
Volume
endemic
##ei
tightly
Whatever
indigenous
Colombia
##ulation
hp
characterized
##ida
Nigeria
Professional
duo
Soccer
slaves
Farm
smart
Attorney
Attendance
Common
salt
##vin
tribes
nod
sentenced
bid
sample
Drive
switch
instant
21st
Cuba
drunk
Alaska
proud
awareness
hitting
sessions
Thai
locally
elsewhere
Dragon
gentle
touching
##lee
Springs
Universal
Latino
spin
1871
Chart
recalled
Type
pointing
##ii
lowest
##ser
grandmother
Adelaide
Jacques
spotted
Buffalo
restoration
Son
Joan
farmers
Lily
1879
lucky
##dal
luck
eldest
##rant
Market
drummer
deployed
warned
prince
sing
amazing
sailed
##oon
1875
Primary
traveling
Masters
Sara
cattle
Trail
gang
Further
desert
relocated
##tch
##ord
Flight
illness
Munich
ninth
repair
Singles
##lated
Tyler
tossed
boots
Work
sized
earning
shoved
magazines
housed
dam
researchers
Former
spun
premiere
spaces
organised
wealth
crimes
devoted
stones
Urban
automatic
hop
affect
outstanding
tanks
mechanism
Muslims
Ms
shots
argue
Jeremy
connections
Armenian
increases
rubbed
1867
retail
gear
Pan
bonus
jurisdiction
weird
concerning
whisper
##gal
Microsoft
tenure
hills
www
Gmina
porch
files
reportedly
venture
Storm
##ence
Nature
killer
panic
fate
Secret
Wang
scream
drivers
belongs
Chamber
clan
monument
mixing
Peru
bet
Riley
Friends
Isaac
submarine
1877
130
judges
harm
ranging
affair
prepare
pupils
householder
Policy
decorated
Nation
slammed
activist
implemented
Room
qualify
Publishing
establishing
Baptist
touring
subsidiary
##nal
legend
1872
laughter
PC
Athens
settlers
ties
dual
dear
Draft
strategic
Ivan
reveal
closest
dominant
Ah
##ult
Denver
bond
boundaries
drafted
tables
##TV
eyed
Edition
##ena
1868
belonging
1874
Industrial
cream
Ridge
Hindu
scholarship
Ma
opens
initiated
##ith
yelled
compound
random
Throughout
grades
physics
sank
grows
exclusively
settle
Saints
brings
Amsterdam
Make
Hart
walks
battery
violin
##born
explanation
##ware
1873
##har
provinces
thrust
exclusive
sculpture
shops
##fire
VI
constitution
Barcelona
monster
Devon
Jefferson
Sullivan
bow
##din
desperate
##ć
Julie
##mon
##ising
terminus
Jesse
abilities
golf
##ple
##via
##away
Raymond
measured
jury
firing
revenue
suburb
Bulgarian
1866
##cha
timber
Things
##weight
Morning
spots
Alberta
Data
explains
Kyle
friendship
raw
tube
demonstrated
aboard
immigrants
reply
breathe
Manager
ease
##ban
##dia
Diocese
##vy
##ía
pit
ongoing
##lie
Gilbert
Costa
1940s
Report
voters
cloud
traditions
##MS
gallery
Jennifer
swung
Broadcasting
Does
diverse
reveals
arriving
initiative
##ani
Give
Allied
Pat
Outstanding
monastery
blind
Currently
##war
bloody
stopping
focuses
managing
Florence
Harvey
creatures
900
breast
internet
Artillery
purple
##mate
alliance
excited
fee
Brisbane
lifetime
Private
##aw
##nis
##gue
##ika
phrase
regulations
reflected
manufactured
conventional
pleased
client
##ix
##ncy
Pedro
reduction
##con
welcome
jail
comfort
Iranian
Norfolk
Dakota
##tein
evolution
everywhere
Initially
sensitive
Olivia
Oscar
implementation
sits
stolen
demands
slide
grandson
##ich
merger
##mic
Spirit
##°
ticket
root
difficulty
Nevada
##als
lined
Dylan
Original
Call
biological
EU
dramatic
##hn
Operations
treaty
gap
##list
Am
Romanized
moral
Butler
perspective
Furthermore
Manuel
absolutely
unsuccessful
disaster
dispute
preparation
tested
discover
##ach
shield
squeezed
brushed
battalion
Arnold
##ras
superior
treat
clinical
##so
Apple
Syria
Cincinnati
package
flights
editions
Leader
minority
wonderful
hang
Pop
Philippine
telephone
bell
honorary
##mar
balls
Democrat
dirty
thereafter
collapsed
Inside
slip
wrestling
##ín
listened
regard
bowl
None
Sport
completing
trapped
##view
copper
Wallace
Honor
blame
Peninsula
##ert
##oy
Anglo
bearing
simultaneously
honest
##ias
Mix
Got
speaker
voiced
impressed
prices
error
1869
##feld
trials
Nine
Industry
substitute
Municipal
departed
slept
##ama
Junction
Socialist
flower
dropping
comment
fantasy
##ress
arrangements
travelled
furniture
fist
relieved
##tics
Leonard
linear
earn
expand
Soul
Plan
Leeds
Sierra
accessible
innocent
Winner
Fighter
Range
winds
vertical
Pictures
101
charter
cooperation
prisoner
interviews
recognised
sung
manufacturer
exposure
submitted
Mars
leaf
gauge
screaming
likes
eligible
##ac
gathering
columns
##dra
belly
UN
maps
messages
speakers
##ants
garage
unincorporated
Number
Watson
sixteen
lots
beaten
Could
Municipality
##ano
Horse
talks
Drake
scores
Venice
genetic
##mal
##ère
Cold
Jose
nurse
traditionally
##bus
Territory
Key
Nancy
##win
thumb
São
index
dependent
carries
controls
Comics
coalition
physician
referring
Ruth
Based
restricted
inherited
internationally
stretch
THE
plates
margin
Holland
knock
significance
valuable
Kenya
carved
emotion
conservation
municipalities
overseas
resumed
Finance
graduation
blinked
temperatures
constantly
productions
scientist
ghost
cuts
permitted
##ches
firmly
##bert
patrol
##yo
Croatian
attacking
1850
portrait
promoting
sink
conversion
##kov
locomotives
Guide
##val
nephew
relevant
Marc
drum
originated
Chair
visits
dragged
Price
favour
corridor
properly
respective
Caroline
reporting
inaugural
1848
industries
##ching
edges
Christianity
Maurice
Trent
Economics
carrier
Reed
##gon
tribute
Pradesh
##ale
extend
attitude
Yale
##lu
settlements
glasses
taxes
targets
##ids
quarters
##ological
connect
hence
metre
collapse
underneath
banned
Future
clients
alternate
explosion
kinds
Commons
hungry
dragon
Chapel
Buddhist
lover
depression
pulls
##ges
##uk
origins
computers
crosses
kissing
assume
emphasis
lighting
##ites
personally
crashed
beam
touchdown
lane
comparison
##mont
Hitler
##las
execution
##ene
acre
sum
Pearl
ray
##point
essentially
worker
convicted
tear
Clay
recovery
Literature
Unfortunately
##row
partial
Petersburg
Bulgaria
coaching
evolved
reception
enters
narrowed
elevator
therapy
defended
pairs
##lam
breaks
Bennett
Uncle
cylinder
##ison
passion
bases
Actor
cancelled
battles
extensively
oxygen
Ancient
specialized
negotiations
##rat
acquisition
convince
interpretation
##00
photos
aspect
colleges
Artist
keeps
##wing
Croatia
##ona
Hughes
Otto
comments
##du
Ph
Sweet
adventure
describing
Student
Shakespeare
scattered
objective
Aviation
Phillips
Fourth
athletes
##hal
##tered
Guitar
intensity
née
dining
curve
Obama
topics
legislative
Mill
Cruz
##ars
Members
recipient
Derby
inspiration
corresponding
fed
YouTube
coins
pressing
intent
Karen
cinema
Delta
destination
shorter
Christians
imagined
canal
Newcastle
Shah
Adrian
super
Males
160
liberal
lord
bat
supplied
Claude
meal
worship
##atic
Han
wire
°F
##tha
punishment
thirteen
fighters
##ibility
1859
Ball
gardens
##ari
Ottawa
pole
indicating
Twenty
Higher
Bass
Ivy
farming
##urs
certified
Saudi
plenty
##ces
restaurants
Representative
Miles
payment
##inger
##rit
Confederate
festivals
references
##ić
Mario
PhD
playoffs
witness
rice
mask
saving
opponents
enforcement
automatically
relegated
##oe
radar
whenever
Financial
imperial
uncredited
influences
Abraham
skull
Guardian
Haven
Bengal
impressive
input
mixture
Warsaw
altitude
distinction
1857
collective
Annie
##ean
##bal
directions
Flying
##nic
faded
##ella
contributing
##ó
employee
##lum
##yl
ruler
oriented
conductor
focusing
##die
Giants
Mills
mines
Deep
curled
Jessica
guitars
Louise
procedure
Machine
failing
attendance
Nepal
Brad
Liam
tourist
exhibited
Sophie
depicted
Shaw
Chuck
##can
expecting
challenges
##nda
equally
resignation
##logical
Tigers
loop
pitched
outdoor
reviewed
hopes
True
temporarily
Borough
torn
jerked
collect
Berkeley
Independence
cotton
retreat
campaigns
participating
Intelligence
Heaven
##ked
situations
borough
Democrats
Harbor
##len
Liga
serial
circles
fourteen
##lot
seized
filling
departments
finance
absolute
Roland
Nate
floors
raced
struggling
deliver
protests
##tel
Exchange
efficient
experiments
##dar
faint
3D
binding
Lions
lightly
skill
proteins
difficulties
##cal
monthly
camps
flood
loves
Amanda
Commerce
##oid
##lies
elementary
##tre
organic
##stein
##ph
receives
Tech
enormous
distinctive
Joint
experiment
Circuit
citizen
##hy
shelter
ideal
practically
formula
addressed
Foster
Productions
##ax
variable
punk
Voice
fastest
concentrated
##oma
##yer
stored
surrender
vary
Sergeant
Wells
ward
Wait
##ven
playoff
reducing
cavalry
##dle
Venezuela
tissue
amounts
sweat
##we
Non
##nik
beetle
##bu
##tu
Jared
Hunt
##₂
fat
Sultan
Living
Circle
Secondary
Suddenly
reverse
##min
Travel
##bin
Lebanon
##mas
virus
Wind
dissolved
enrolled
holiday
Keep
helicopter
Clarke
constitutional
technologies
doubles
instructions
##ace
Azerbaijan
##ill
occasional
frozen
trick
wiped
writings
Shanghai
preparing
challenged
mainstream
summit
180
##arian
##rating
designation
##ada
revenge
filming
tightened
Miguel
Montana
reflect
celebration
bitch
flashed
signals
rounded
peoples
##tation
renowned
Google
characteristic
Campaign
sliding
##rman
usage
Record
Using
woke
solutions
holes
theories
logo
Protestant
relaxed
brow
nickname
Reading
marble
##tro
symptoms
Overall
capita
##ila
outbreak
revolution
deemed
Principal
Hannah
approaches
inducted
Wellington
vulnerable
Environmental
Drama
incumbent
Dame
1854
travels
samples
accurate
physically
Sony
Nashville
##sville
##lic
##og
Producer
Lucky
tough
Stanford
resort
repeatedly
eyebrows
Far
choir
commenced
##ep
##ridge
rage
swing
sequel
heir
buses
ad
Grove
##late
##rick
updated
##SA
Delaware
##fa
Athletics
warmth
Off
excitement
verse
Protection
Villa
corruption
intellectual
Jenny
##lyn
mystery
prayer
healthy
##ologist
Bear
lab
Ernest
Remix
register
basement
Montgomery
consistent
tier
1855
Preston
Brooks
##maker
vocalist
laboratory
delayed
wheels
rope
bachelor
pitcher
Block
Nevertheless
suspect
efficiency
Nebraska
siege
FBI
planted
##AC
Newton
breeding
##ain
eighteen
Argentine
encounter
servant
1858
elder
Shadow
Episode
fabric
doctors
survival
removal
chemistry
volunteers
Kane
variant
arrives
Eagle
Left
##fe
Jo
divorce
##ret
yesterday
Bryan
handling
diseases
customer
Sheriff
Tiger
Harper
##oi
resting
Linda
Sheffield
gasped
sexy
economics
alien
tale
footage
Liberty
yeah
fundamental
Ground
flames
Actress
photographer
Maggie
Additional
joke
custom
Survey
Abu
silk
consumption
Ellis
bread
##uous
engagement
puts
Dog
##hr
poured
guilt
CDP
boxes
hardware
clenched
##cio
stem
arena
extending
##com
examination
Steel
encountered
revised
140
picking
Car
hasn
Minor
pride
Roosevelt
boards
##mia
blocked
curious
drag
narrative
brigade
Prefecture
mysterious
namely
connects
Devil
historians
CHAPTER
quit
installation
Golf
empire
elevated
##eo
releasing
Bond
##uri
harsh
ban
##BA
contracts
cloth
presents
stake
chorus
##eau
swear
##mp
allies
generations
Motor
meter
pen
warrior
veteran
##EC
comprehensive
missile
interaction
instruction
Renaissance
rested
Dale
fix
fluid
les
investigate
loaded
widow
exhibit
artificial
select
rushing
tasks
signature
nowhere
Engineer
feared
Prague
bother
extinct
gates
Bird
climbing
heels
striking
artwork
hunt
awake
##hin
Formula
thereby
commitment
imprisoned
Beyond
##MA
transformed
Agriculture
Low
Movie
radical
complicated
Yellow
Auckland
mansion
tenth
Trevor
predecessor
##eer
disbanded
sucked
circular
witch
gaining
lean
Behind
illustrated
rang
celebrate
bike
consist
framework
##cent
Shane
owns
350
comprises
collaborated
colleagues
##cast
engage
fewer
##ave
1856
observation
diplomatic
legislature
improvements
Interstate
craft
MTV
martial
administered
jet
approaching
permanently
attraction
manuscript
numbered
Happy
Andrea
shallow
Gothic
Anti
##bad
improvement
trace
preserve
regardless
rode
dies
achievement
maintaining
Hamburg
spine
##air
flowing
encourage
widened
posts
##bound
125
Southeast
Santiago
##bles
impression
receiver
Single
closure
##unt
communist
honors
Northwest
105
##ulated
cared
un
hug
magnetic
seeds
topic
perceived
prey
prevented
Marvel
Eight
Michel
Transportation
rings
Gate
##gne
Byzantine
accommodate
floating
##dor
equation
ministry
##ito
##gled
Rules
earthquake
revealing
Brother
Celtic
blew
chairs
Panama
Leon
attractive
descendants
Care
Ambassador
tours
breathed
threatening
##cho
smiles
Lt
Beginning
##iness
fake
assists
fame
strings
Mobile
Liu
parks
http
1852
brush
Aunt
bullet
consciousness
##sta
##ther
consequences
gather
dug
1851
bridges
Doug
##sion
Artists
ignore
Carol
brilliant
radiation
temples
basin
clouds
##cted
Stevens
spite
soap
consumer
Damn
Snow
recruited
##craft
Advanced
tournaments
Quinn
undergraduate
questioned
Palmer
Annual
Others
feeding
Spider
printing
##orn
cameras
functional
Chester
readers
Alpha
universal
Faith
Brandon
François
authored
Ring
el
aims
athletic
possessed
Vermont
programmes
##uck
bore
Fisher
statements
shed
saxophone
neighboring
pronounced
barrel
bags
##dge
organisations
pilots
casualties
Kenneth
##brook
silently
Malcolm
span
Essex
anchor
##hl
virtual
lessons
Henri
Trump
Page
pile
locomotive
wounds
uncomfortable
sustained
Diana
Eagles
##pi
2000s
documented
##bel
Cassie
delay
kisses
##ines
variation
##ag
growled
##mark
##ways
Leslie
studios
Friedrich
aunt
actively
armor
eaten
historically
Better
purse
honey
ratings
##ée
naturally
1840
peer
Kenny
Cardinal
database
Looking
runners
handsome
Double
PA
##boat
##sted
protecting
##jan
Diamond
concepts
interface
##aki
Watch
Article
Columbus
dialogue
pause
##rio
extends
blanket
pulse
1853
affiliate
ladies
Ronald
counted
kills
demons
##zation
Airlines
Marco
Cat
companion
mere
Yugoslavia
Forum
Allan
pioneer
Competition
Methodist
patent
nobody
Stockholm
##ien
regulation
##ois
accomplished
##itive
washed
sake
Vladimir
crops
prestigious
humor
Sally
labour
tributary
trap
altered
examined
Mumbai
bombing
Ash
noble
suspension
ruins
##bank
spare
displays
guided
dimensional
Iraqi
##hon
sciences
Franz
relating
fence
followers
Palestine
invented
proceeded
Batman
Bradley
##yard
##ova
crystal
Kerala
##ima
shipping
handled
Want
abolished
Drew
##tter
Powell
Half
##table
##cker
exhibitions
Were
assignment
assured
##rine
Indonesian
Grammy
acknowledged
Kylie
coaches
structural
clearing
stationed
Say
Total
Rail
besides
glow
threats
afford
Tree
Musical
##pp
elite
centered
explore
Engineers
Stakes
Hello
tourism
severely
assessment
##tly
crack
politicians
##rrow
sheets
volunteer
##borough
##hold
announcement
recover
contribute
lungs
##ille
mainland
presentation
Johann
Writing
1849
##bird
Study
Boulevard
coached
fail
airline
Congo
Plus
Syrian
introduce
ridge
Casey
manages
##fi
searched
Support
succession
progressive
coup
cultures
##lessly
sensation
Cork
Elena
Sofia
Philosophy
mini
trunk
academy
Mass
Liz
practiced
Reid
##ule
satisfied
experts
Wilhelm
Woods
invitation
Angels
calendar
joy
Sr
Dam
packed
##uan
bastard
Workers
broadcasts
logic
cooking
backward
##ack
Chen
creates
enzyme
##xi
Davies
aviation
VII
Conservation
fucking
Knights
##kan
requiring
hectares
wars
ate
##box
Mind
desired
oak
absorbed
Really
Vietnamese
Paulo
athlete
##car
##eth
Talk
Wu
##cks
survivors
Yang
Joel
Almost
Holmes
Armed
Joshua
priests
discontinued
##sey
blond
Rolling
suggesting
CA
clay
exterior
Scientific
##sive
Giovanni
Hi
farther
contents
Winners
animation
neutral
mall
Notes
layers
professionals
Armstrong
Against
Piano
involve
monitor
angel
parked
bears
seated
feat
beliefs
##kers
Version
suffer
##ceae
guidance
##eur
honored
raid
alarm
Glen
Ellen
Jamaica
trio
enabled
##ils
procedures
##hus
moderate
upstairs
##ses
torture
Georgian
rebellion
Fernando
Nice
##are
Aires
Campus
beast
##hing
1847
##FA
Isle
##logist
Princeton
cathedral
Oakland
Solomon
##tto
Milwaukee
upcoming
midfielder
Neither
sacred
Eyes
appreciate
Brunswick
secrets
Rice
Somerset
Chancellor
Curtis
##gel
Rich
separation
grid
##los
##bon
urge
##ees
##ree
freight
towers
psychology
requirement
dollar
##fall
##sman
exile
tomb
Salt
Stefan
Buenos
Revival
Porter
tender
diesel
chocolate
Eugene
Legion
Laboratory
sheep
arched
hospitals
orbit
Full
##hall
drinks
ripped
##RS
tense
Hank
leagues
##nberg
PlayStation
fool
Punjab
relatives
Comedy
sur
1846
Tonight
Sox
##if
Rabbi
org
speaks
institute
defender
painful
wishes
Weekly
literacy
portions
snake
item
deals
##tum
autumn
sharply
reforms
thighs
prototype
##ition
argues
disorder
Physics
terror
provisions
refugees
predominantly
independently
march
##graphy
Arabia
Andrews
Bus
Money
drops
##zar
pistol
matrix
revolutionary
##ust
Starting
##ptic
Oak
Monica
##ides
servants
##hed
archaeological
divorced
rocket
enjoying
fires
##nel
assembled
qualification
retiring
##fied
Distinguished
handful
infection
Durham
##itz
fortune
renewed
Chelsea
##sley
curved
gesture
retain
exhausted
##ifying
Perth
jumping
Palestinian
Simpson
colonies
steal
##chy
corners
Finn
arguing
Martha
##var
Betty
emerging
Heights
Hindi
Manila
pianist
founders
regret
Napoleon
elbow
overhead
bold
praise
humanity
##ori
Revolutionary
##ere
fur
##ole
Ashley
Official
##rm
lovely
Architecture
##sch
Baronet
virtually
##OS
descended
immigration
##das
##kes
Holly
Wednesday
maintains
theatrical
Evan
Gardens
citing
##gia
segments
Bailey
Ghost
##city
governing
graphics
##ined
privately
potentially
transformation
Crystal
Cabinet
sacrifice
hesitated
mud
Apollo
Desert
bin
victories
Editor
Railways
Web
Case
tourists
Brussels
Franco
compiled
topped
Gene
engineers
commentary
egg
escort
nerve
arch
necessarily
frustration
Michelle
democracy
genes
Facebook
halfway
##ient
102
flipped
Won
##mit
NASA
Lynn
Provincial
ambassador
Inspector
glared
Change
McDonald
developments
tucked
noting
Gibson
circulation
dubbed
armies
resource
Headquarters
##iest
Mia
Albanian
Oil
Albums
excuse
intervention
Grande
Hugo
integration
civilians
depends
reserves
Dee
compositions
identification
restrictions
quarterback
Miranda
Universe
favourite
ranges
hint
loyal
Op
entity
Manual
quoted
dealt
specialist
Zhang
download
Westminster
Rebecca
streams
Anglican
variations
Mine
detective
Films
reserved
##oke
##key
sailing
##gger
expanding
recall
discovers
particles
behaviour
Gavin
blank
permit
Java
Fraser
Pass
##non
##TA
panels
statistics
notion
courage
dare
venues
##roy
Box
Newport
travelling
Thursday
warriors
Glenn
criteria
360
mutual
restore
varied
bitter
Katherine
##lant
ritual
bits
##à
Henderson
trips
Richardson
Detective
curse
psychological
Il
midnight
streak
facts
Dawn
Indies
Edmund
roster
Gen
##nation
1830
congregation
shaft
##ically
##mination
Indianapolis
Sussex
loving
##bit
sounding
horrible
Continental
Griffin
advised
magical
millions
##date
1845
Safety
lifting
determination
valid
dialect
Penn
Know
triple
avoided
dancer
judgment
sixty
farmer
lakes
blast
aggressive
Abby
tag
chains
inscription
##nn
conducting
Scout
buying
##wich
spreading
##OC
array
hurried
Environment
improving
prompted
fierce
Taking
Away
tune
pissed
Bull
catching
##ying
eyebrow
metropolitan
terrain
##rel
Lodge
manufacturers
creator
##etic
happiness
ports
##ners
Relations
fortress
targeted
##ST
allegedly
blues
##osa
Bosnia
##dom
burial
similarly
stranger
pursued
symbols
rebels
reflection
routine
traced
indoor
eventual
##ska
##ão
##una
MD
##phone
oh
grants
Reynolds
rid
operators
##nus
Joey
vital
siblings
keyboard
br
removing
societies
drives
solely
princess
lighter
Various
Cavalry
believing
SC
underwent
relay
smelled
syndrome
welfare
authorized
seemingly
Hard
chicken
##rina
Ages
Bo
democratic
barn
Eye
shorts
##coming
##hand
disappointed
unexpected
centres
Exhibition
Stories
Site
banking
accidentally
Agent
conjunction
André
Chloe
resist
width
Queens
provision
##art
Melissa
Honorary
Del
prefer
abruptly
duration
##vis
Glass
enlisted
##ado
discipline
Sisters
carriage
##ctor
##sburg
Lancashire
log
fuck
##iz
closet
collecting
holy
rape
trusted
cleaning
inhabited
Rocky
104
editorial
##yu
##ju
succeed
strict
Cuban
##iya
Bronze
outcome
##ifies
##set
corps
Hero
barrier
Kumar
groaned
Nina
Burton
enable
stability
Milton
knots
##ination
slavery
##borg
curriculum
trailer
warfare
Dante
Edgar
revival
Copenhagen
define
advocate
Garrett
Luther
overcome
pipe
750
construct
Scotia
kings
flooding
##hard
Ferdinand
Felix
forgot
Fish
Kurt
elaborate
##BC
graphic
gripped
colonel
Sophia
Advisory
Self
##uff
##lio
monitoring
seal
senses
rises
peaceful
journals
1837
checking
legendary
Ghana
##power
ammunition
Rosa
Richards
nineteenth
ferry
aggregate
Troy
inter
##wall
Triple
steep
tent
Cyprus
1844
##woman
commanding
farms
doi
navy
specified
na
cricketer
transported
Think
comprising
grateful
solve
##core
beings
clerk
grain
vector
discrimination
##TC
Katie
reasonable
drawings
veins
consideration
Monroe
repeat
breed
dried
witnessed
ordained
Current
spirits
remarkable
consultant
urged
Remember
anime
singers
phenomenon
Rhode
Carlo
demanding
findings
manual
varying
Fellowship
generate
safely
heated
withdrawn
##ao
headquartered
##zon
##lav
##ency
Col
Memphis
imposed
rivals
Planet
healing
##hs
ensemble
Warriors
##bone
cult
Frankfurt
##HL
diversity
Gerald
intermediate
##izes
reactions
Sister
##ously
##lica
quantum
awkward
mentions
pursuit
##ography
varies
profession
molecular
consequence
lectures
cracked
103
slowed
##tsu
cheese
upgraded
suite
substance
Kingston
1800
Idaho
Theory
##een
ain
Carson
Molly
##OR
configuration
Whitney
reads
audiences
##tie
Geneva
Outside
##nen
##had
transit
volleyball
Randy
Chad
rubber
motorcycle
respected
eager
Level
coin
##lets
neighbouring
##wski
confident
##cious
poll
uncertain
punch
thesis
Tucker
IATA
Alec
##ographic
##law
1841
desperately
1812
Lithuania
accent
Cox
lightning
skirt
##load
Burns
Dynasty
##ug
chapters
Working
dense
Morocco
##kins
casting
Set
activated
oral
Brien
horn
HIV
dawn
stumbled
altar
tore
considerably
Nicole
interchange
registration
biography
Hull
Stan
bulk
consent
Pierce
##ER
Fifth
marched
terrorist
##piece
##itt
Presidential
Heather
staged
Plant
relegation
sporting
joins
##ced
Pakistani
dynamic
Heat
##lf
ourselves
Except
Elliott
nationally
goddess
investors
Burke
Jackie
##ā
##RA
Tristan
Associate
Tuesday
scope
Near
bunch
##abad
##ben
sunlight
##aire
manga
Willie
trucks
boarding
Lion
lawsuit
Learning
Der
pounding
awful
##mine
IT
Legend
romance
Serie
AC
gut
precious
Robertson
hometown
realm
Guards
Tag
batting
##vre
halt
conscious
1838
acquire
collar
##gg
##ops
Herald
nationwide
citizenship
Aircraft
decrease
em
Fiction
Female
corporation
Located
##ip
fights
unconscious
Tampa
Poetry
lobby
Malta
##sar
##bie
layout
Tate
reader
stained
##bre
##rst
##ulate
loudly
Eva
Cohen
exploded
Merit
Maya
##rable
Rovers
##IC
Morrison
Should
vinyl
##mie
onwards
##gie
vicinity
Wildlife
probability
Mar
Barnes
##ook
spinning
Moses
##vie
Surrey
Planning
conferences
protective
Plaza
deny
Canterbury
manor
Estate
tilted
comics
IBM
destroying
server
Dorothy
##horn
Oslo
lesser
heaven
Marshal
scales
strikes
##ath
firms
attract
##BS
controlling
Bradford
southeastern
Amazon
Travis
Janet
governed
1842
Train
Holden
bleeding
gifts
rent
1839
palms
##ū
judicial
Ho
Finals
conflicts
unlikely
draws
##cies
compensation
adds
elderly
Anton
lasting
Nintendo
codes
ministers
pot
associations
capabilities
##cht
libraries
##sie
chances
performers
runway
##af
##nder
Mid
Vocals
##uch
##eon
interpreted
priority
Uganda
ruined
Mathematics
cook
AFL
Lutheran
AIDS
Capitol
chase
axis
Moreover
María
Saxon
storyline
##ffed
Tears
Kid
cent
colours
Sex
##long
pm
blonde
Edwin
CE
diocese
##ents
##boy
Inn
##ller
Saskatchewan
##kh
stepping
Windsor
##oka
##eri
Xavier
Resources
1843
##top
##rad
##lls
Testament
poorly
1836
drifted
slope
CIA
remix
Lords
mature
hosting
diamond
beds
##ncies
luxury
trigger
##lier
preliminary
hybrid
journalists
Enterprise
proven
expelled
insects
Beautiful
lifestyle
vanished
##ake
##ander
matching
surfaces
Dominican
Kids
referendum
Orlando
Truth
Sandy
privacy
Calgary
Speaker
sts
Nobody
shifting
##gers
Roll
Armenia
Hand
##ES
106
##ont
Guild
larvae
Stock
flame
gravity
enhanced
Marion
surely
##tering
Tales
algorithm
Emmy
darker
VIII
##lash
hamlet
deliberately
occurring
choices
Gage
fees
settling
ridiculous
##ela
Sons
cop
custody
##ID
proclaimed
Cardinals
##pm
Metal
Ana
1835
clue
Cardiff
riders
observations
MA
sometime
##och
performer
intact
Points
allegations
rotation
Tennis
tenor
Directors
##ats
Transit
thigh
Complex
##works
twentieth
Factory
doctrine
Daddy
##ished
pretend
Winston
cigarette
##IA
specimens
hydrogen
smoking
mathematical
arguments
openly
developer
##iro
fists
somebody
##san
Standing
Caleb
intelligent
Stay
Interior
echoed
Valentine
varieties
Brady
cluster
Ever
voyage
##of
deposits
ultimate
Hayes
horizontal
proximity
##ás
estates
exploration
NATO
Classical
##most
bills
condemned
1832
hunger
##ato
planes
deserve
offense
sequences
rendered
acceptance
##ony
manufacture
Plymouth
innovative
predicted
##RC
Fantasy
##une
supporter
absent
Picture
bassist
rescued
##MC
Ahmed
Monte
##sts
##rius
insane
novelist
##és
agrees
Antarctic
Lancaster
Hopkins
calculated
startled
##star
tribal
Amendment
##hoe
invisible
patron
deer
Walk
tracking
Lyon
tickets
##ED
philosopher
compounds
chuckled
##wi
pound
loyalty
Academic
petition
refuses
marking
Mercury
northeastern
dimensions
scandal
Canyon
patch
publish
##oning
Peak
minds
##boro
Presbyterian
Hardy
theoretical
magnitude
bombs
cage
##ders
##kai
measuring
explaining
avoiding
touchdowns
Card
theology
##ured
Popular
export
suspicious
Probably
photograph
Lou
Parks
Arms
compact
Apparently
excess
Banks
lied
stunned
territorial
Filipino
spectrum
learns
wash
imprisonment
ugly
##rose
Albany
Erik
sends
##hara
##rid
consumed
##gling
Belgrade
Da
opposing
Magnus
footsteps
glowing
delicate
Alexandria
Ludwig
gorgeous
Bros
Index
##PA
customs
preservation
bonds
##mond
environments
##nto
instructed
parted
adoption
locality
workshops
goalkeeper
##rik
##uma
Brighton
Slovenia
##ulating
##tical
towel
hugged
stripped
Bears
upright
Wagner
##aux
secretly
Adventures
nest
Course
Lauren
Boeing
Abdul
Lakes
450
##cu
USSR
caps
Chan
##nna
conceived
Actually
Belfast
Lithuanian
concentrate
possess
militia
pine
protagonist
Helena
##PS
##band
Belle
Clara
Reform
currency
pregnancy
1500
##rim
Isabella
hull
Name
trend
journalism
diet
##mel
Recording
acclaimed
Tang
Jace
steering
vacant
suggestion
costume
laser
##š
##ink
##pan
##vić
integral
achievements
wise
classroom
unions
southwestern
##uer
Garcia
toss
Tara
Large
##tate
evident
responsibilities
populated
satisfaction
##bia
casual
Ecuador
##ght
arose
##ović
Cornwall
embrace
refuse
Heavyweight
XI
Eden
activists
##uation
biology
##shan
fraud
Fuck
matched
legacy
Rivers
missionary
extraordinary
Didn
holder
wickets
crucial
Writers
Hurricane
Iceland
gross
trumpet
accordance
hurry
flooded
doctorate
Albania
##yi
united
deceased
jealous
grief
flute
portraits
##а
pleasant
Founded
Face
crowned
Raja
advisor
Salem
##ec
Achievement
admission
freely
minimal
Sudan
developers
estimate
disabled
##lane
downstairs
Bruno
##pus
pinyin
##ude
lecture
deadly
underlying
optical
witnesses
Combat
Julius
tapped
variants
##like
Colonial
Critics
Similarly
mouse
voltage
sculptor
Concert
salary
Frances
##ground
hook
premises
Software
instructor
nominee
##ited
fog
slopes
##zu
vegetation
sail
##rch
Body
Apart
atop
View
utility
ribs
cab
migration
##wyn
bounded
2019
pillow
trails
##ub
Halifax
shade
Rush
##lah
##dian
Notre
interviewed
Alexandra
Springfield
Indeed
rubbing
dozens
amusement
legally
##lers
Jill
Cinema
ignoring
Choice
##ures
pockets
##nell
laying
Blair
tackles
separately
##teen
Criminal
performs
theorem
Communication
suburbs
##iel
competitors
rows
##hai
Manitoba
Eleanor
interactions
nominations
assassination
##dis
Edmonton
diving
##dine
essay
##tas
AFC
Edge
directing
imagination
sunk
implement
Theodore
trembling
sealed
##rock
Nobel
##ancy
##dorf
##chen
genuine
apartments
Nicolas
AA
Bach
Globe
Store
220
##10
Rochester
##ño
alert
107
Beck
##nin
Naples
Basin
Crawford
fears
Tracy
##hen
disk
##pped
seventeen
Lead
backup
reconstruction
##lines
terrified
sleeve
nicknamed
popped
##making
##ern
Holiday
Gospel
ibn
##ime
convert
divine
resolved
##quet
ski
realizing
##RT
Legislature
reservoir
Rain
sinking
rainfall
elimination
challenging
tobacco
##outs
Given
smallest
Commercial
pin
rebel
comedian
exchanged
airing
dish
Salvador
promising
##wl
relax
presenter
toll
aerial
##eh
Fletcher
brass
disappear
zones
adjusted
contacts
##lk
sensed
Walt
mild
toes
flies
shame
considers
wildlife
Hanna
Arsenal
Ladies
naming
##ishing
anxiety
discussions
cute
undertaken
Cash
strain
Wyoming
dishes
precise
Angela
##ided
hostile
twins
115
Built
##pel
Online
tactics
Newman
##bourne
unclear
repairs
embarrassed
listing
tugged
Vale
##gin
Meredith
bout
##cle
velocity
tips
froze
evaluation
demonstrate
##card
criticised
Nash
lineup
Rao
monks
bacteria
lease
##lish
frightened
den
revived
finale
##rance
flee
Letters
decreased
##oh
Sounds
wrap
Sharon
incidents
renovated
everybody
stole
Bath
boxing
1815
withdraw
backs
interim
react
murders
Rhodes
Copa
framed
flown
Estonia
Heavy
explored
##rra
##GA
##ali
Istanbul
1834
##rite
##aging
##ues
Episcopal
arc
orientation
Maxwell
infected
##rot
BCE
Brook
grasp
Roberto
Excellence
108
withdrawal
Marines
rider
Lo
##sin
##run
Subsequently
garrison
hurricane
facade
Prussia
crushed
enterprise
##mber
Twitter
Generation
Physical
Sugar
editing
communicate
Ellie
##hurst
Ernst
wagon
promotional
conquest
Parliamentary
courtyard
lawyers
Superman
email
Prussian
lately
lecturer
Singer
Majesty
Paradise
sooner
Heath
slot
curves
convoy
##vian
induced
synonym
breeze
##plane
##ox
peered
Coalition
##hia
odds
##esh
##lina
Tomorrow
Nadu
##ico
##rah
damp
autonomous
console
Victory
counts
Luxembourg
intimate
Archived
Carroll
spy
Zero
habit
Always
faction
teenager
Johnston
chaos
ruin
commerce
blog
##shed
##the
reliable
Word
Yu
Norton
parade
Catholics
damned
##iling
surgeon
##tia
Allison
Jonas
remarked
##ès
idiot
Making
proposals
Industries
strategies
artifacts
batteries
reward
##vers
Agricultural
distinguish
lengths
Jeffrey
Progressive
kicking
Patricia
##gio
ballot
##ios
skilled
##gation
Colt
limestone
##AS
peninsula
##itis
LA
hotels
shapes
Crime
depicting
northwestern
HD
silly
Das
##²
##ws
##ash
##matic
thermal
Has
forgive
surrendered
Palm
Nacional
drank
haired
Mercedes
##foot
loading
Timothy
##roll
mechanisms
traces
digging
discussing
Natalie
##zhou
Forbes
landmark
Anyway
Manor
conspiracy
gym
knocking
viewing
Formation
Pink
Beauty
limbs
Phillip
sponsor
Joy
granite
Harbour
##ero
payments
Ballet
conviction
##dam
Hood
estimates
lacked
Mad
Jorge
##wen
refuge
##LA
invaded
Kat
suburban
##fold
investigated
Ari
complained
creek
Georges
##uts
powder
accepting
deserved
carpet
Thunder
molecules
Legal
cliff
strictly
enrollment
ranch
##rg
##mba
proportion
renovation
crop
grabbing
##liga
finest
entries
receptor
helmet
blown
Listen
flagship
workshop
resolve
nails
Shannon
portal
jointly
shining
Violet
overwhelming
upward
Mick
proceedings
##dies
##aring
Laurence
Churchill
##rice
commit
170
inclusion
Examples
##verse
##rma
fury
paths
##SC
ankle
nerves
Chemistry
rectangular
sworn
screenplay
cake
Mann
Seoul
Animal
sizes
Speed
vol
Population
Southwest
Hold
continuously
Qualified
wishing
Fighting
Made
disappointment
Portsmouth
Thirty
##beck
Ahmad
teammate
MLB
graph
Charleston
realizes
##dium
exhibits
preventing
##int
fever
rivalry
Male
mentally
dull
##lor
##rich
consistently
##igan
Madame
certificate
suited
Krishna
accuracy
Webb
Budapest
Rex
1831
Cornell
OK
surveillance
##gated
habitats
Adventure
Conrad
Superior
Gay
sofa
aka
boot
Statistics
Jessie
Liberation
##lip
##rier
brands
saint
Heinrich
Christine
bath
Rhine
ballet
Jin
consensus
chess
Arctic
stack
furious
cheap
toy
##yre
##face
##gging
gastropod
##nne
Romans
membrane
answering
25th
architects
sustainable
##yne
Hon
1814
Baldwin
dome
##awa
##zen
celebrity
enclosed
##uit
##mmer
Electronic
locals
##CE
supervision
mineral
Chemical
Slovakia
alley
hub
##az
heroes
Creative
##AM
incredible
politically
ESPN
yanked
halls
Aboriginal
Greatest
yield
##20
congressional
robot
Kiss
welcomed
MS
speeds
proceed
Sherman
eased
Greene
Walsh
Geoffrey
variables
rocky
##print
acclaim
Reverend
Wonder
tonnes
recurring
Dawson
continent
finite
AP
continental
ID
facilitate
essays
Rafael
Neal
1833
ancestors
##met
##gic
Especially
teenage
frustrated
Jules
cock
expense
##oli
##old
blocking
Notable
prohibited
ca
dock
organize
##wald
Burma
Gloria
dimension
aftermath
choosing
Mickey
torpedo
pub
##used
manuscripts
laps
Ulster
staircase
sphere
Insurance
Contest
lens
risks
investigations
ERA
glare
##play
Graduate
auction
Chronicle
##tric
##50
Coming
seating
Wade
seeks
inland
Thames
Rather
butterfly
contracted
positioned
consumers
contestants
fragments
Yankees
Santos
administrator
hypothesis
retire
Denis
agreements
Winnipeg
##rill
1820
trophy
crap
shakes
Jenkins
##rium
ya
twist
labels
Maritime
##lings
##iv
111
##ensis
Cairo
Anything
##fort
opinions
crowded
##nian
abandon
##iff
drained
imported
##rr
tended
##rain
Going
introducing
sculptures
bankruptcy
danced
demonstration
stance
settings
gazed
abstract
pet
Calvin
stiff
strongest
wrestler
##dre
Republicans
grace
allocated
cursed
snail
advancing
Return
errors
Mall
presenting
eliminate
Amateur
Institution
counting
##wind
warehouse
##nde
Ethiopia
trailed
hollow
##press
Literary
capability
nursing
preceding
lamp
Thomson
Morton
##ctic
Crew
Close
composers
boom
Clare
missiles
112
hunter
snap
##oni
##tail
Us
declaration
##cock
rally
huh
lion
straightened
Philippe
Sutton
alpha
valued
maker
navigation
detected
favorable
perception
Charter
##ña
Ricky
rebounds
tunnels
slapped
Emergency
supposedly
##act
deployment
socialist
tubes
anybody
corn
##NA
Seminary
heating
pump
##AA
achieving
souls
##ass
Link
##ele
##smith
greeted
Bates
Americas
Elder
cure
contestant
240
fold
Runner
Uh
licked
Politics
committees
neighbors
fairy
Silva
Leipzig
tipped
correctly
exciting
electronics
foundations
cottage
governmental
##hat
allied
claws
presidency
cruel
Agreement
slender
accompanying
precisely
##pass
driveway
swim
Stand
crews
##mission
rely
everyday
Wings
demo
##hic
recreational
min
nationality
##duction
Easter
##hole
canvas
Kay
Leicester
talented
Discovery
shells
##ech
Kerry
Ferguson
Leave
##place
altogether
adopt
butt
wolves
##nsis
##ania
modest
soprano
Boris
##ught
electron
depicts
hid
cruise
differ
treasure
##nch
Gun
Mama
Bengali
trainer
merchants
innovation
presumably
Shirley
bottles
proceeds
Fear
invested
Pirates
particle
Dominic
blamed
Fight
Daisy
##pper
##graphic
nods
knight
Doyle
tales
Carnegie
Evil
Inter
Shore
Nixon
transform
Savannah
##gas
Baltic
stretching
worlds
protocol
Percy
Toby
Heroes
brave
dancers
##aria
backwards
responses
Chi
Gaelic
Berry
crush
embarked
promises
Madonna
researcher
realised
inaugurated
Cherry
Mikhail
Nottingham
reinforced
subspecies
rapper
##kie
Dreams
Re
Damon
Minneapolis
monsters
suspicion
Tel
surroundings
afterward
complaints
OF
sectors
Algeria
lanes
Sabha
objectives
Donna
bothered
distracted
deciding
##ives
##CA
##onia
bishops
Strange
machinery
Voiced
synthesis
reflects
interference
##TS
##ury
keen
##ign
frown
freestyle
ton
Dixon
Sacred
Ruby
Prison
##ión
1825
outfit
##tain
curiosity
##ight
frames
steadily
emigrated
horizon
##erly
Doc
philosophical
Table
UTC
Marina
##DA
secular
##eed
Zimbabwe
cops
Mack
sheriff
Sanskrit
Francesco
catches
questioning
streaming
Kill
testimony
hissed
tackle
countryside
copyright
##IP
Buddhism
##rator
ladder
##ON
Past
rookie
depths
##yama
##ister
##HS
Samantha
Dana
Educational
brows
Hammond
raids
envelope
##sco
##hart
##ulus
epic
detection
Streets
Potter
statistical
für
ni
accounting
##pot
employer
Sidney
Depression
commands
Tracks
averaged
lets
Ram
longtime
suits
branded
chip
Shield
loans
ought
Said
sip
##rome
requests
Vernon
bordered
veterans
##ament
Marsh
Herzegovina
Pine
##igo
mills
anticipation
reconnaissance
##ef
expectations
protested
arrow
guessed
depot
maternal
weakness
##ap
projected
pour
Carmen
provider
newer
remind
freed
##rily
##wal
##tones
intentions
Fiji
timing
Match
managers
Kosovo
Herman
Wesley
Chang
135
semifinals
shouting
Indo
Janeiro
Chess
Macedonia
Buck
##onies
rulers
Mail
##vas
##sel
MHz
Programme
Task
commercially
subtle
propaganda
spelled
bowling
basically
Raven
1828
Colony
109
##ingham
##wara
anticipated
1829
##iers
graduates
##rton
##fication
endangered
ISO
diagnosed
##tage
exercises
Battery
bolt
poison
cartoon
##ción
hood
bowed
heal
Meyer
Reagan
##wed
subfamily
##gent
momentum
infant
detect
##sse
Chapman
Darwin
mechanics
NSW
Cancer
Brooke
Nuclear
comprised
hire
sanctuary
wingspan
contrary
remembering
surprising
Basic
stealing
OS
hatred
##lled
masters
violation
Rule
##nger
assuming
conquered
louder
robe
Beatles
legitimate
##vation
massacre
Rica
unsuccessfully
poets
##enberg
careers
doubled
premier
battalions
Dubai
Paper
Louisville
gestured
dressing
successive
mumbled
Vic
referee
pupil
##cated
##rre
ceremonies
picks
##IN
diplomat
alike
geographical
rays
##HA
##read
harbour
factories
pastor
playwright
Ultimate
nationalist
uniforms
obtaining
kit
Amber
##pling
screenwriter
ancestry
##cott
Fields
PR
Coleman
rat
Bavaria
squeeze
highlighted
Adult
reflecting
Mel
1824
bicycle
organizing
sided
Previously
Underground
Prof
athletics
coupled
mortal
Hampton
worthy
immune
Ava
##gun
encouraging
simplified
##ssa
##nte
##ann
Providence
entities
Pablo
Strong
Housing
##ista
##ators
kidnapped
mosque
Kirk
whispers
fruits
shattered
fossil
Empress
Johns
Webster
Thing
refusing
differently
specimen
Ha
##EN
##tina
##elle
##night
Horn
neighbourhood
Bolivia
##rth
genres
Pre
##vich
Amelia
swallow
Tribune
Forever
Psychology
Use
##bers
Gazette
ash
##usa
Monster
##cular
delegation
blowing
Oblast
retreated
automobile
##ex
profits
shirts
devil
Treasury
##backs
Drums
Ronnie
gameplay
expertise
Evening
resides
Caesar
unity
Crazy
linking
Vision
donations
Isabel
valve
Sue
WWE
logical
availability
fitting
revolt
##mill
Linux
taxi
Access
pollution
statues
Augustus
##pen
cello
##some
lacking
##ati
Gwen
##aka
##ovich
1821
Wow
initiatives
Uruguay
Cain
stroked
examine
##ī
mentor
moist
disorders
buttons
##tica
##anna
Species
Lynch
museums
scorer
Poor
eligibility
op
unveiled
cats
Title
wheat
critically
Syracuse
##osis
marketed
enhance
Ryder
##NG
##ull
##rna
embedded
throws
foods
happily
##ami
lesson
formats
punched
##rno
expressions
qualities
##sal
Gods
##lity
elect
wives
##lling
jungle
Toyota
reversed
Grammar
Cloud
Agnes
##ules
disputed
verses
Lucien
threshold
##rea
scanned
##bled
##dley
##lice
Kazakhstan
Gardner
Freeman
##rz
inspection
Rita
accommodation
advances
chill
Elliot
thriller
Constantinople
##mos
debris
whoever
1810
Santo
Carey
remnants
Guatemala
##irs
carriers
equations
mandatory
##WA
anxious
measurement
Summit
Terminal
Erin
##zes
LLC
##uo
glancing
sin
##₃
Downtown
flowering
Euro
Leigh
Lance
warn
decent
recommendations
##ote
Quartet
##rrell
Clarence
colleague
guarantee
230
Clayton
Beast
addresses
prospect
destroyer
vegetables
Leadership
fatal
prints
190
##makers
Hyde
persuaded
illustrations
Southampton
Joyce
beats
editors
mount
##grave
Malaysian
Bombay
endorsed
##sian
##bee
applying
Religion
nautical
bomber
Na
airfield
gravel
##rew
Cave
bye
dig
decree
burden
Election
Hawk
Fe
##iled
reunited
##tland
liver
Teams
Put
delegates
Ella
##fect
Cal
invention
Castro
bored
##kawa
##ail
Trinidad
NASCAR
pond
develops
##pton
expenses
Zoe
Released
##rf
organs
beta
parameters
Neill
##lene
lateral
Beat
blades
Either
##hale
Mitch
##ET
##vous
Rod
burnt
phones
Rising
##front
investigating
##dent
Stephanie
##keeper
screening
##uro
Swan
Sinclair
modes
bullets
Nigerian
melody
##ques
Rifle
##12
128
##jin
charm
Venus
##tian
fusion
advocated
visitor
pinned
genera
3000
Ferry
Solo
quantity
regained
platinum
shoots
narrowly
preceded
update
##ichi
equality
unaware
regiments
ally
##tos
transmitter
locks
Seeing
outlets
feast
reopened
##ows
struggles
Buddy
1826
bark
elegant
amused
Pretty
themed
schemes
Lisbon
Te
patted
terrorism
Mystery
##croft
##imo
Madagascar
Journey
dealer
contacted
##quez
ITV
vacation
Wong
Sacramento
organisms
##pts
balcony
coloured
sheer
defines
MC
abortion
forbidden
accredited
Newfoundland
tendency
entrepreneur
Benny
Tanzania
needing
finalist
mythology
weakened
gown
sentences
Guest
websites
Tibetan
UFC
voluntary
annoyed
Welcome
honestly
correspondence
geometry
Deutsche
Biology
Help
##aya
Lines
Hector
##ael
reluctant
##ages
wears
inquiry
##dell
Holocaust
Tourism
Wei
volcanic
##mates
Visual
sorts
neighborhoods
Running
apple
shy
Laws
bend
Northeast
feminist
Speedway
Murder
visa
stuffed
fangs
transmitted
fiscal
Ain
enlarged
##ndi
Cecil
Peterson
Benson
Bedford
acceptable
##CC
##wer
purely
triangle
foster
Alberto
educator
Highland
acute
LGBT
Tina
Mi
adventures
Davidson
Honda
translator
monk
enacted
summoned
##ional
collector
Genesis
Un
liner
Di
Statistical
##CS
filter
Knox
Religious
Stella
Estonian
Turn
##ots
primitive
parishes
##lles
complexity
autobiography
rigid
cannon
pursuing
exploring
##gram
##mme
freshman
caves
Expedition
Traditional
iTunes
certification
cooling
##ort
##gna
##IT
##lman
##VA
Motion
explosive
licence
boxer
shrine
loosely
Brigadier
Savage
Brett
MVP
heavier
##elli
##gged
Buddha
Easy
spells
fails
incredibly
Georg
stern
compatible
Perfect
applies
cognitive
excessive
nightmare
neighbor
Sicily
appealed
static
##₁
Aberdeen
##leigh
slipping
bride
##guard
Um
Clyde
1818
##gible
Hal
Frost
Sanders
interactive
Hour
##vor
hurting
bull
termed
shelf
capturing
##pace
rolls
113
##bor
Chilean
teaches
##rey
exam
shipped
Twin
borrowed
##lift
Shit
##hot
Lindsay
Below
Kiev
Lin
leased
##sto
Eli
Diane
Val
subtropical
shoe
Bolton
Dragons
##rification
Vatican
##pathy
Crisis
dramatically
talents
babies
##ores
surname
##AP
##cology
cubic
opted
Archer
sweep
tends
Karnataka
Judy
stint
Similar
##nut
explicitly
##nga
interact
Mae
portfolio
clinic
abbreviated
Counties
##iko
hearts
##ı
providers
screams
Individual
##etti
Monument
##iana
accessed
encounters
gasp
##rge
defunct
Avery
##rne
nobility
useless
Phase
Vince
senator
##FL
1813
surprisingly
##illo
##chin
Boyd
rumors
equity
Gone
Hearts
chassis
overnight
Trek
wrists
submit
civic
designers
##rity
prominence
decorative
derives
starter
##AF
wisdom
Powers
reluctantly
measurements
doctoral
Noel
Gideon
Baden
Cologne
lawn
Hawaiian
anthology
##rov
Raiders
embassy
Sterling
##pal
Telugu
troubled
##FC
##bian
fountain
observe
ore
##uru
##gence
spelling
Border
grinning
sketch
Benedict
Xbox
dialects
readily
immigrant
Constitutional
aided
nevertheless
SE
tragedy
##ager
##rden
Flash
##MP
Europa
emissions
##ield
panties
Beverly
Homer
curtain
##oto
toilet
Isn
Jerome
Chiefs
Hermann
supernatural
juice
integrity
Scots
auto
Patriots
Strategic
engaging
prosecution
cleaned
Byron
investments
adequate
vacuum
laughs
##inus
##nge
Usually
Roth
Cities
Brand
corpse
##ffy
Gas
rifles
Plains
sponsorship
Levi
tray
owed
della
commanders
##ead
tactical
##rion
García
harbor
discharge
##hausen
gentleman
endless
highways
##itarian
pleaded
##eta
archive
Midnight
exceptions
instances
Gibraltar
cart
##NS
Darren
Bonnie
##yle
##iva
OCLC
bra
Jess
##EA
consulting
Archives
Chance
distances
commissioner
##AR
LL
sailors
##sters
enthusiasm
Lang
##zia
Yugoslav
confirm
possibilities
Suffolk
##eman
banner
1822
Supporting
fingertips
civilization
##gos
technically
1827
Hastings
sidewalk
strained
monuments
Floyd
Chennai
Elvis
villagers
Cumberland
strode
albeit
Believe
planets
combining
Mohammad
container
##mouth
##tures
verb
BA
Tank
Midland
screened
Gang
Democracy
Helsinki
screens
thread
charitable
##version
swiftly
ma
rational
combine
##SS
##antly
dragging
Cliff
Tasmania
quest
professionally
##aj
rap
##lion
livestock
##hua
informal
specially
lonely
Matthews
Dictionary
1816
Observatory
correspondent
constitute
homeless
waving
appreciated
Analysis
Meeting
dagger
##AL
Gandhi
flank
Giant
Choir
##not
glimpse
toe
Writer
teasing
springs
##dt
Glory
healthcare
regulated
complaint
math
Publications
makers
##hips
cement
Need
apologize
disputes
finishes
Partners
boring
ups
gains
1793
Congressional
clergy
Folk
##made
##nza
Waters
stays
encoded
spider
betrayed
Applied
inception
##urt
##zzo
wards
bells
UCLA
Worth
bombers
Mo
trademark
Piper
##vel
incorporates
1801
##cial
dim
Twelve
##word
Appeals
tighter
spacecraft
##tine
coordinates
##iac
mistakes
Zach
laptop
Teresa
##llar
##yr
favored
Nora
sophisticated
Irving
hammer
División
corporations
niece
##rley
Patterson
UNESCO
trafficking
Ming
balanced
plaque
Latvia
broader
##owed
Save
confined
##vable
Dalton
tide
##right
##ural
##num
swords
caring
##eg
IX
Acting
paved
##moto
launching
Antoine
substantially
Pride
Philharmonic
grammar
Indoor
Ensemble
enabling
114
resided
Angelo
publicity
chaired
crawled
Maharashtra
Telegraph
lengthy
preference
differential
anonymous
Honey
##itation
wage
##iki
consecrated
Bryant
regulatory
Carr
##én
functioning
watches
##ú
shifts
diagnosis
Search
app
Peters
##SE
##cat
Andreas
honours
temper
counsel
Urdu
Anniversary
maritime
##uka
harmony
##unk
essence
Lorenzo
choked
Quarter
indie
##oll
loses
##prints
amendment
Adolf
scenario
similarities
##rade
##LC
technological
metric
Russians
thoroughly
##tead
cruiser
1806
##nier
1823
Teddy
##psy
au
progressed
exceptional
broadcaster
partnered
fitness
irregular
placement
mothers
unofficial
Garion
Johannes
1817
regain
Solar
publishes
Gates
Broken
thirds
conversations
dive
Raj
contributor
quantities
Worcester
governance
##flow
generating
pretending
Belarus
##voy
radius
skating
Marathon
1819
affection
undertook
##wright
los
##bro
locate
PS
excluded
recreation
tortured
jewelry
moaned
##logue
##cut
Complete
##rop
117
##II
plantation
whipped
slower
crater
##drome
Volunteer
attributes
celebrations
regards
Publishers
oath
utilized
Robbie
Giuseppe
fiber
indication
melted
archives
Damien
storey
affecting
identifying
dances
alumni
comparable
upgrade
rented
sprint
##kle
Marty
##lous
treating
railways
Lebanese
erupted
occupy
sympathy
Jude
Darling
Qatar
drainage
McCarthy
heel
Klein
computing
wireless
flip
Du
Bella
##ast
##ssen
narrator
mist
sings
alignment
121
2020
securing
##rail
Progress
missionaries
brutal
mercy
##shing
Hip
##ache
##olo
switching
##here
Malay
##ob
constituted
Mohammed
Often
standings
surge
teachings
ink
detached
systematic
Trial
Myanmar
##wo
offs
Reyes
decoration
translations
wherever
reviewer
speculation
Bangkok
terminated
##ester
beard
RCA
Aidan
Associated
Emerson
Charity
1803
generous
Dudley
ATP
##haven
prizes
toxic
gloves
##iles
##dos
Turning
myth
Parade
##building
Hits
##eva
teamed
Above
Duchess
Holt
##oth
Sub
Ace
atomic
inform
Ship
depend
Jun
##bes
Norwich
globe
Baroque
Christina
Cotton
Tunnel
kidding
Concerto
Brittany
tasted
phases
stems
angles
##TE
##nam
##40
charted
Alison
intensive
Willis
glory
##lit
Bergen
est
taller
##dicate
labeled
##ido
commentator
Warrior
Viscount
shortened
aisle
Aria
Spike
spectators
goodbye
overlooking
mammals
##lude
wholly
Barrett
##gus
accompany
seventy
employ
##mb
ambitious
beloved
basket
##mma
##lding
halted
descendant
pad
exclaimed
cloak
##pet
Strait
Bang
Aviv
sadness
##ffer
Donovan
1880s
agenda
swinging
##quin
jerk
Boat
##rist
nervously
Silence
Echo
shout
implies
##iser
##cking
Shiva
Weston
damages
##tist
effectiveness
Horace
cycling
Rey
ache
Photography
PDF
Dear
leans
Lea
##vision
booth
attained
disbelief
##eus
##ution
Hop
pension
toys
Eurovision
faithful
##heads
Andre
owe
default
Atlas
Megan
highlights
lovers
Constantine
Sixth
masses
##garh
emerge
Auto
Slovak
##oa
##vert
Superintendent
flicked
inventor
Chambers
Frankie
Romeo
pottery
companions
Rudolf
##liers
diary
Unless
tap
alter
Randall
##ddle
##eal
limitations
##boards
utterly
knelt
guaranteed
Cowboys
Islander
horns
##ike
Wendy
sexually
Smart
breasts
##cian
compromise
Duchy
AT
Galaxy
analog
Style
##aking
weighed
Nigel
optional
Czechoslovakia
practicing
Ham
##0s
feedback
batted
uprising
operative
applicable
criminals
classrooms
Somehow
##ode
##OM
Naomi
Winchester
##pping
Bart
Regina
competitor
Recorded
Yuan
Vera
lust
Confederation
##test
suck
1809
Lambert
175
Friend
##ppa
Slowly
##⁺
Wake
Dec
##aneous
chambers
Color
Gus
##site
Alternative
##world
Exeter
Omaha
celebrities
striker
210
dwarf
meals
Oriental
Pearson
financing
revenues
underwater
Steele
screw
Feeling
Mt
acids
badge
swore
theaters
Moving
admired
lung
knot
penalties
116
fork
##cribed
Afghan
outskirts
Cambodia
oval
wool
fossils
Ned
Countess
Darkness
delicious
##nica
Evelyn
Recordings
guidelines
##CP
Sandra
meantime
Antarctica
modeling
granddaughter
##rial
Roma
Seventh
Sunshine
Gabe
##nton
Shop
Turks
prolific
soup
parody
##nta
Judith
disciplines
resign
Companies
Libya
Jets
inserted
Mile
retrieve
filmmaker
##rand
realistic
unhappy
##30
sandstone
##nas
##lent
##ush
##rous
Brent
trash
Rescue
##unted
Autumn
disgust
flexible
infinite
sideways
##oss
##vik
trailing
disturbed
50th
Newark
posthumously
##rol
Schmidt
Josef
##eous
determining
menu
Pole
Anita
Luc
peaks
118
Yard
warrant
generic
deserted
Walking
stamp
tracked
##berger
paired
surveyed
sued
Rainbow
##isk
Carpenter
submarines
realization
touches
sweeping
Fritz
module
Whether
resembles
##form
##lop
unsure
hunters
Zagreb
unemployment
Senators
Georgetown
##onic
Barker
foul
commercials
Dresden
Words
collision
Carlton
Fashion
doubted
##ril
precision
MIT
Jacobs
mob
Monk
retaining
gotta
##rod
remake
Fast
chips
##pled
sufficiently
##lights
delivering
##enburg
Dancing
Barton
Officers
metals
##lake
religions
##ré
motivated
differs
dorsal
##birds
##rts
Priest
polished
##aling
Saxony
Wyatt
knockout
##hor
Lopez
RNA
##link
metallic
##kas
daylight
Montenegro
##lining
wrapping
resemble
Jam
Viking
uncertainty
angels
enables
##fy
Stuttgart
tricks
tattoo
127
wicked
asset
breach
##yman
MW
breaths
Jung
im
1798
noon
vowel
##qua
calmly
seasonal
chat
ingredients
cooled
Randolph
ensuring
##ib
##idal
flashing
1808
Macedonian
Cool
councils
##lick
advantages
Immediately
Madras
##cked
Pain
fancy
chronic
Malayalam
begged
##nese
Inner
feathers
##vey
Names
dedication
Sing
pan
Fischer
nurses
Sharp
inning
stamps
Meg
##ello
edged
motioned
Jacksonville
##ffle
##dic
##US
divide
garnered
Ranking
chasing
modifications
##oc
clever
midst
flushed
##DP
void
##sby
ambulance
beaches
groan
isolation
strengthen
prevention
##ffs
Scouts
reformed
geographic
squadrons
Fiona
Kai
Consequently
##uss
overtime
##yas
Fr
##BL
Papua
Mixed
glances
Haiti
Sporting
sandy
confronted
René
Tanner
1811
##IM
advisory
trim
##ibe
González
gambling
Jupiter
##ility
##owski
##nar
122
apology
teased
Pool
feminine
wicket
eagle
shiny
##lator
blend
peaking
nasty
nodding
fraction
tech
Noble
Kuwait
brushing
Italia
Canberra
duet
Johan
1805
Written
cameo
Stalin
pig
cord
##zio
Surely
SA
owing
holidays
123
Ranger
lighthouse
##ige
miners
1804
##ë
##gren
##ried
crashing
##atory
wartime
highlight
inclined
Torres
Tax
##zel
##oud
Own
##corn
Divine
EMI
Relief
Northwestern
ethics
BMW
click
plasma
Christie
coordinator
Shepherd
washing
cooked
##dio
##eat
Cerambycidae
algebra
Engine
costumes
Vampire
vault
submission
virtue
assumption
##rell
Toledo
##oting
##rva
crept
emphasized
##lton
##ood
Greeks
surgical
crest
Patrol
Beta
Tessa
##GS
pizza
traits
rats
Iris
spray
##GC
Lightning
binary
escapes
##take
Clary
crowds
##zong
hauled
maid
##fen
Manning
##yang
Nielsen
aesthetic
sympathetic
affiliation
soaked
Mozart
personalities
begging
##iga
clip
Raphael
yearly
Lima
abundant
##lm
1794
strips
Initiative
reporters
##vsky
consolidated
##itated
Civic
rankings
mandate
symbolic
##ively
1807
rental
duck
nave
complications
##nor
Irene
Nazis
haunted
scholarly
Pratt
Gran
Embassy
Wave
pity
genius
bats
canton
Tropical
marker
##cos
escorted
Climate
##posed
appreciation
freezing
puzzle
Internal
pools
Shawn
pathway
Daniels
Fitzgerald
extant
olive
Vanessa
marriages
cocked
##dging
prone
chemicals
doll
drawer
##HF
Stark
Property
##tai
flowed
Sheridan
##uated
Less
Omar
remarks
catalogue
Seymour
wreck
Carrie
##bby
Mercer
displaced
sovereignty
rip
Flynn
Archie
Quarterfinals
Hassan
##ards
vein
Osaka
pouring
wages
Romance
##cript
##phere
550
##eil
##stown
Documentary
ancestor
CNN
Panthers
publishers
Rise
##mu
biting
Bright
String
succeeding
119
loaned
Warwick
Sheikh
Von
Afterwards
Jax
Camden
helicopters
Hence
Laurel
##ddy
transaction
Corp
clause
##owing
##kel
Investment
cups
Lucia
Moss
Giles
chef
López
decisive
30th
distress
linguistic
surveys
Ready
maiden
Touch
frontier
incorporate
exotic
mollusk
Leopold
Ride
##wain
##ndo
teammates
tones
drift
ordering
Feb
Penny
Normandy
Present
Flag
pipes
##rro
delight
motto
Tibet
leap
Eliza
Produced
teenagers
sitcom
Try
Hansen
Cody
wandered
terrestrial
frog
scare
resisted
employers
coined
##DS
resistant
Fly
captive
dissolution
judged
associates
defining
##court
Hale
##mbo
raises
clusters
twelfth
##metric
Roads
##itude
satisfy
Android
Reds
Gloucester
Category
Valencia
Daemon
stabbed
Luna
Churches
Canton
##eller
Attack
Kashmir
annexed
grabs
asteroid
Hartford
recommendation
Rodriguez
handing
stressed
frequencies
delegate
Bones
Erie
Weber
Hands
Acts
millimetres
24th
Fat
Howe
casually
##SL
convent
1790
IF
##sity
1795
yelling
##ises
drain
addressing
amino
Marcel
Sylvia
Paramount
Gerard
Volleyball
butter
124
Albion
##GB
triggered
1792
folding
accepts
##ße
preparations
Wimbledon
dose
##grass
escaping
##tling
import
charging
##dation
280
Nolan
##fried
Calcutta
##pool
Cove
examining
minded
heartbeat
twisting
domains
bush
Tunisia
Purple
Leone
##code
evacuated
battlefield
tiger
Electrical
##ared
chased
##cre
cultivated
Jet
solved
shrug
ringing
Impact
##iant
kilometre
##log
commemorate
migrated
singular
designing
promptly
Higgins
##own
##aves
freshwater
Marketing
Payne
beg
locker
pray
implied
AAA
corrected
Trans
Europeans
Ashe
acknowledge
Introduction
##writer
##llen
Munster
auxiliary
growl
Hours
Poems
##AT
reduces
Plain
plague
canceled
detention
polite
necklace
Gustav
##gu
##lance
En
Angola
##bb
dwelling
##hea
5000
Qing
Dodgers
rim
##ored
##haus
spilled
Elisabeth
Viktor
backpack
1802
amended
##worthy
Phantom
##ctive
keeper
##loom
Vikings
##gua
employs
Tehran
specialty
##bate
Marx
Mirror
Jenna
rides
needle
prayers
clarinet
forewings
##walk
Midlands
convincing
advocacy
Cao
Birds
cycles
Clement
Gil
bubble
Maximum
humanitarian
Tan
cries
##SI
Parsons
Trio
offshore
Innovation
clutched
260
##mund
##duct
Prairie
relied
Falcon
##ste
Kolkata
Gill
Swift
Negro
Zoo
valleys
##OL
Opening
beams
MPs
outline
Bermuda
Personal
exceed
productive
##MT
republic
forum
##sty
tornado
Known
dipped
Edith
folks
mathematician
watershed
Ricardo
synthetic
##dication
deity
##₄
gaming
subjected
suspects
Foot
swollen
Motors
##tty
##ý
aloud
ceremonial
es
nuts
intend
Carlisle
tasked
hesitation
sponsors
unified
inmates
##ctions
##stan
tiles
jokes
whereby
outcomes
Lights
scary
Stoke
Portrait
Blind
sergeant
violations
cultivation
fuselage
Mister
Alfonso
candy
sticks
teen
agony
Enough
invite
Perkins
Appeal
mapping
undergo
Glacier
Melanie
affects
incomplete
##dd
Colombian
##nate
CBC
purchasing
bypass
Drug
Electronics
Frontier
Coventry
##aan
autonomy
scrambled
Recent
bounced
cow
experiencing
Rouge
cuisine
Elite
disability
Ji
inheritance
wildly
Into
##wig
confrontation
Wheeler
shiver
Performing
aligned
consequently
Alexis
Sin
woodland
executives
Stevenson
Ferrari
inevitable
##cist
##dha
##base
Corner
comeback
León
##eck
##urus
MacDonald
pioneering
breakdown
landscapes
Veterans
Rican
Theological
stirred
participant
Credit
Hyderabad
snails
Claudia
##ocene
compliance
##MI
Flags
Middlesex
storms
winding
asserted
er
##ault
##kal
waking
##rates
abbey
Augusta
tooth
trustees
Commodore
##uded
Cunningham
NC
Witch
marching
Sword
Same
spiral
Harley
##ahan
Zack
Audio
1890s
##fit
Simmons
Kara
Veronica
negotiated
Speaking
FIBA
Conservatory
formations
constituencies
explicit
facial
eleventh
##ilt
villain
##dog
##case
##hol
armored
tin
hairs
##umi
##rai
mattress
Angus
cease
verbal
Recreation
savings
Aurora
peers
Monastery
Airways
drowned
additions
downstream
sticking
Shi
mice
skiing
##CD
Raw
Riverside
warming
hooked
boost
memorable
posed
treatments
320
##dai
celebrating
blink
helpless
circa
Flowers
PM
uncommon
Oct
Hawks
overwhelmed
Sparhawk
repaired
Mercy
pose
counterpart
compare
survives
##½
##eum
coordinate
Lil
grandchildren
notorious
Yi
Judaism
Juliet
accusations
1789
floated
marathon
roar
fortified
reunion
145
Nov
Paula
##fare
##toria
tearing
Cedar
disappearance
Si
gifted
scar
270
PBS
Technologies
Marvin
650
roller
cupped
negotiate
##erman
passport
tram
miracle
styled
##tier
necessity
Des
rehabilitation
Lara
USD
psychic
wipe
##lem
mistaken
##lov
charming
Rider
pageant
dynamics
Cassidy
##icus
defenses
##tadt
##vant
aging
##inal
declare
mistress
supervised
##alis
##rest
Ashton
submerged
sack
Dodge
grocery
ramp
Teacher
lineage
imagery
arrange
inscriptions
Organisation
Siege
combines
pounded
Fleming
legends
columnist
Apostolic
prose
insight
Arabian
expired
##uses
##nos
Alone
elbows
##asis
##adi
##combe
Step
Waterloo
Alternate
interval
Sonny
plains
Goals
incorporating
recruit
adjoining
Cheshire
excluding
marrying
ducked
Cherokee
par
##inate
hiking
Coal
##bow
natives
ribbon
Allies
con
descriptions
positively
##lal
defendant
22nd
Vivian
##beat
Weather
possessions
Date
sweetheart
inability
Salisbury
adviser
ideology
Nordic
##eu
Cubs
IP
Administrative
##nick
facto
liberation
Burnett
Javier
fashioned
Electoral
Turin
theft
unanimous
Per
1799
Clan
Hawkins
Teachers
##wes
Cameroon
Parkway
##gment
demolition
atoms
nucleus
##thi
recovering
##yte
##vice
lifts
Must
deposit
Hancock
Semi
darkened
Declaration
moan
muscular
Myers
attractions
sauce
simulation
##weed
Alps
barriers
##baum
Barack
galleries
Min
holders
Greenwich
donation
Everybody
Wolfgang
sandwich
Kendra
Collegiate
casino
Slavic
ensuing
Porto
##grapher
Jesuit
suppressed
tires
Ibrahim
protesters
Ibn
Amos
1796
phenomena
Hayden
Paraguay
Squad
Reilly
complement
aluminum
##eers
doubts
decay
demise
Practice
patience
fireplace
transparent
monarchy
##person
Rodney
mattered
rotating
Clifford
disposal
Standards
paced
##llie
arise
tallest
tug
documentation
node
freeway
Nikolai
##cite
clicked
imaging
Lorraine
Tactical
Different
Regular
Holding
165
Pilot
guarded
##polis
Classics
Mongolia
Brock
monarch
cellular
receptors
Mini
Chandler
financed
financially
Lives
erection
Fuller
unnamed
Kannada
cc
passive
plateau
##arity
freak
##rde
retrieved
transactions
##sus
23rd
swimmer
beef
fulfill
Arlington
offspring
reasoning
Rhys
saves
pseudonym
centimetres
shivered
shuddered
##ME
Feel
##otic
professors
Blackburn
##eng
##life
##haw
interred
lodge
fragile
Della
guardian
##bbled
catalog
clad
observer
tract
declaring
##headed
Lok
dean
Isabelle
1776
irrigation
spectacular
shuttle
mastering
##aro
Nathaniel
Retired
##lves
Brennan
##kha
dick
##dated
##hler
Rookie
leapt
televised
weekends
Baghdad
Yemen
##fo
factions
ion
Lab
mortality
passionate
Hammer
encompasses
confluence
demonstrations
Ki
derivative
soils
##unch
Ranch
Universities
conventions
outright
aiming
hierarchy
reside
illusion
graves
rituals
126
Antwerp
Dover
##ema
campuses
Hobart
lifelong
aliens
##vity
Memory
coordination
alphabet
##mina
Titans
pushes
Flanders
##holder
Normal
excellence
capped
profound
Taipei
portrayal
sparked
scratch
se
##eas
##hir
Mackenzie
##cation
Neo
Shin
##lined
magnificent
poster
batsman
##rgent
persuade
##ement
Icelandic
miserable
collegiate
Feature
geography
##mura
Comic
Circus
processor
barracks
Tale
##11
Bulls
##rap
strengthened
##bell
injection
miniature
broadly
Letter
fare
hostage
traders
##nium
##mere
Fortune
Rivera
Lu
triumph
Browns
Bangalore
cooperative
Basel
announcing
Sawyer
##him
##cco
##kara
darted
##AD
##nova
sucking
##position
perimeter
flung
Holdings
##NP
Basque
sketches
Augustine
Silk
Elijah
analyst
armour
riots
acquiring
ghosts
##ems
132
Pioneer
Colleges
Simone
Economy
Author
semester
Soldier
il
##unting
##bid
freaking
Vista
tumor
##bat
murderer
##eda
unreleased
##grove
##sser
##té
edit
statute
sovereign
##gawa
Killer
stares
Fury
comply
##lord
##nant
barrels
Andhra
Maple
generator
mascot
unusually
eds
##ante
##runner
rod
##tles
Historically
Jennings
dumped
Established
resemblance
##lium
##cise
##body
##voke
Lydia
##hou
##iring
nonetheless
1797
corrupt
patrons
physicist
sneak
Livingston
Citizens
Architects
Werner
trends
Melody
eighty
markings
brakes
##titled
oversaw
processed
mock
Midwest
intervals
##EF
stretches
werewolf
##MG
Pack
controller
##dition
Honours
cane
Griffith
vague
repertoire
Courtney
orgasm
Abdullah
dominance
occupies
Ya
introduces
Lester
instinct
collaborative
Indigenous
refusal
##rank
outlet
debts
spear
155
##keeping
##ulu
Catalan
##osh
tensions
##OT
bred
crude
Dunn
abdomen
accurately
##fu
##lough
accidents
Row
Audrey
rude
Getting
promotes
replies
Paolo
merge
##nock
trans
Evangelical
automated
Canon
##wear
##ggy
##gma
Broncos
foolish
icy
Voices
knives
Aside
dreamed
generals
molecule
AG
rejection
insufficient
##nagar
deposited
sacked
Landing
arches
helpful
devotion
intake
Flower
PGA
dragons
evolutionary
##mail
330
GM
tissues
##tree
arcade
composite
lid
Across
implications
lacks
theological
assessed
concentrations
Den
##mans
##ulous
Fu
homeland
##stream
Harriet
ecclesiastical
troop
ecological
winked
##xed
eighteenth
Casino
specializing
##sworth
unlocked
supreme
devastated
snatched
trauma
GDP
Nord
saddle
Wes
convenient
competes
##nu
##iss
Marian
subway
##rri
successes
umbrella
##far
##ually
Dundee
##cence
spark
##rix
##я
Quality
Geological
cockpit
rpm
Cam
Bucharest
riot
##PM
Leah
##dad
##pose
Ka
m³
Bundesliga
Wolfe
grim
textile
quartet
expressing
fantastic
destroyers
eternal
picnic
##oro
contractor
1775
spanning
declining
##cating
Lowe
Sutherland
Emirates
downward
nineteen
violently
scout
viral
melting
enterprises
##cer
Crosby
Jubilee
antenna
urgent
Rory
##uin
##sure
wandering
##gler
##vent
Suzuki
Lifetime
Dirty
occupying
##quent
Disc
Guru
mound
Lennon
Humanities
listeners
Walton
uh
Braves
Bologna
##bis
##gra
Dwight
crawl
flags
memoir
Thorne
Archdiocese
dairy
##uz
##tery
roared
adjust
patches
inn
Knowing
##bbed
##zan
scan
Papa
precipitation
angrily
passages
postal
Phi
embraced
blacks
economist
triangular
Sen
shooter
punished
Millennium
Swimming
confessed
Aston
defeats
Era
cousins
Williamson
##rer
daytime
dumb
##rek
underway
specification
Buchanan
prayed
concealed
activation
##issa
canon
awesome
Starr
plural
summers
##fields
Slam
unnecessary
1791
resume
trilogy
compression
##rough
selective
dignity
Yan
##xton
immense
##yun
lone
seeded
hiatus
lightweight
summary
Yo
approve
Galway
rejoined
Elise
garbage
burns
speeches
129
Honduras
##liness
inventory
jersey
FK
assure
slumped
Lionel
Suite
##sbury
Lena
continuation
##AN
brightly
##nti
GT
Knowledge
##park
##lius
lethal
##tribution
##sions
Certificate
Mara
##lby
algorithms
Jade
blows
pirates
fleeing
wheelchair
Stein
sophomore
Alt
Territorial
diploma
snakes
##olic
##tham
Tiffany
Pius
flush
urging
Hanover
Reich
##olate
Unity
Pike
collectively
Theme
ballad
kindergarten
rocked
zoo
##page
whip
Rodríguez
strokes
checks
Becky
Stern
upstream
##uta
Silent
volunteered
Sigma
##ingen
##tract
##ede
Gujarat
screwed
entertaining
##action
##ryn
defenders
innocence
lesbian
que
Richie
nodes
Lie
juvenile
Jakarta
safer
confront
Bert
breakthrough
gospel
Cable
##zie
institutional
Archive
brake
liquor
feeds
##iate
chancellor
Encyclopedia
Animation
scanning
teens
##mother
Core
Rear
Wine
##flower
reactor
Ave
cardinal
sodium
strands
Olivier
crouched
Vaughan
Sammy
Image
scars
Emmanuel
flour
bias
nipple
revelation
##ucci
Denny
##ssy
Form
Runners
admits
Rama
violated
Burmese
feud
underwear
Mohamed
Named
swift
statewide
Door
Recently
comparing
Hundred
##idge
##nity
##rds
Rally
Reginald
Auburn
solving
waitress
Treasurer
##ilization
Halloween
Ministers
Boss
Shut
##listic
Rahman
demonstrating
##pies
Gaza
Yuri
installations
Math
schooling
##bble
Bronx
exiled
gasoline
133
bundle
humid
FCC
proportional
relate
VFL
##dez
continuity
##cene
syndicated
atmospheric
arrows
Wanderers
reinforcements
Willow
Lexington
Rotten
##yon
discovering
Serena
portable
##lysis
targeting
£1
Goodman
Steam
sensors
detachment
Malik
##erie
attitudes
Goes
Kendall
Read
Sleep
beans
Nikki
modification
Jeanne
knuckles
Eleven
##iously
Gross
Jaime
dioxide
moisture
Stones
UCI
displacement
Metacritic
Jury
lace
rendering
elephant
Sergei
##quire
GP
Abbott
##type
projection
Mouse
Bishops
whispering
Kathleen
Rams
##jar
whites
##oran
assess
dispatched
##hire
kin
##mir
Nursing
advocates
tremendous
sweater
assisting
##bil
Farmer
prominently
reddish
Hague
cyclone
##SD
Sage
Lawson
Sanctuary
discharged
retains
##ube
shotgun
wilderness
Reformed
similarity
Entry
Watts
Bahá
Quest
Looks
visions
Reservoir
Arabs
curls
Blu
dripping
accomplish
Verlag
drill
sensor
Dillon
physicians
smashed
##dir
painters
Renault
straw
fading
Directorate
lounge
commissions
Brain
##graph
neo
##urg
plug
coordinated
##houses
Critical
lamps
illustrator
Returning
erosion
Crow
##ciation
blessing
Thought
Wife
medalist
synthesizer
Pam
Thornton
Esther
HBO
fond
Associates
##raz
pirate
permits
Wide
tire
##PC
Ernie
Nassau
transferring
RFC
##ntly
um
spit
AS
##mps
Mining
polar
villa
anchored
##zzi
embarrassment
relates
##ă
Rupert
counterparts
131
Baxter
##18
Igor
recognizes
Clive
##hane
##eries
##ibly
occurrence
##scope
fin
colorful
Rapids
banker
tile
##rative
##dus
delays
destinations
##llis
Pond
Dane
grandparents
rewarded
socially
motorway
##hof
##lying
##human
modeled
Dayton
Forward
conscience
Sharma
whistle
Mayer
Sasha
##pical
circuits
Zhou
##ça
Latvian
finalists
predators
Lafayette
closes
obligations
Resolution
##vier
Trustees
reminiscent
##hos
Highlands
Protected
asylum
evacuation
##acy
Chevrolet
confession
Somalia
emergence
separating
##rica
alright
calcium
Laurent
Welfare
Leonardo
ashes
dental
Deal
minerals
##lump
##mount
accounted
staggered
slogan
photographic
builder
##imes
##raft
tragic
144
SEC
Hit
tailed
##ples
##rring
##rson
ethical
wrestlers
concludes
lunar
##ept
nitrogen
Aid
cyclist
quarterfinals
##ه
harvest
##hem
Pasha
IL
##mis
continually
##forth
Intel
bucket
##ended
witches
pretended
dresses
viewer
peculiar
lowering
volcano
Marilyn
Qualifier
clung
##sher
Cut
modules
Bowie
##lded
onset
transcription
residences
##pie
##itor
scrapped
##bic
Monaco
Mayo
eternity
Strike
uncovered
skeleton
##wicz
Isles
bug
Promoted
##rush
Mechanical
XII
##ivo
gripping
stubborn
velvet
TD
decommissioned
operas
spatial
unstable
Congressman
wasted
##aga
##ume
advertisements
##nya
obliged
Cannes
Conway
bricks
##gnant
##mity
##uise
jumps
Clear
##cine
##sche
chord
utter
Su
podium
spokesman
Royce
assassin
confirmation
licensing
liberty
##rata
Geographic
individually
detained
##ffe
Saturn
crushing
airplane
bushes
knights
##PD
Lilly
hurts
unexpectedly
Conservatives
pumping
Forty
candle
Pérez
peasants
supplement
Sundays
##ggs
##rries
risen
enthusiastic
corresponds
pending
##IF
Owens
floods
Painter
inflation
presumed
inscribed
Chamberlain
bizarre
1200
liability
reacted
tub
Legacy
##eds
##pted
shone
##litz
##NC
Tiny
genome
bays
Eduardo
robbery
stall
hatch
Depot
Variety
Flora
reprinted
trembled
outlined
CR
Theresa
spans
##plication
Jensen
##eering
posting
##rky
pays
##ost
Marcos
fortifications
inferior
##ential
Devi
despair
Talbot
##chus
updates
ego
Booth
Darius
tops
##lau
Scene
##DC
Harlem
Trey
Generally
candles
##α
Neville
Admiralty
##hong
iconic
victorious
1600
Rowan
abundance
miniseries
clutching
sanctioned
##words
obscure
##ision
##rle
##EM
disappearing
Resort
Obviously
##eb
exceeded
1870s
Adults
##cts
Cry
Kerr
ragged
selfish
##lson
circled
pillars
galaxy
##asco
##mental
rebuild
caution
Resistance
Start
bind
splitting
Baba
Hogan
ps
partnerships
slam
Peggy
courthouse
##OD
organizational
packages
Angie
##nds
possesses
##rp
Expressway
Gould
Terror
Him
Geoff
nobles
##ope
shark
##nh
identifies
##oor
testified
Playing
##ump
##isa
stool
Idol
##pice
##tana
Byrne
Gerry
grunted
26th
observing
habits
privilege
immortal
wagons
##thy
dot
Bring
##lian
##witz
newest
##uga
constraints
Screen
Issue
##RNA
##vil
reminder
##gles
addiction
piercing
stunning
var
##rita
Signal
accumulated
##wide
float
devastating
viable
cartoons
Uttar
flared
##encies
Theology
patents
##bahn
privileges
##ava
##CO
137
##oped
##NT
orchestral
medication
225
erect
Nadia
École
fried
Sales
scripts
##rease
airs
Cage
inadequate
structured
countless
Avengers
Kathy
disguise
mirrors
Investigation
reservation
##nson
Legends
humorous
Mona
decorations
attachment
Via
motivation
Browne
strangers
##ński
Shadows
Twins
##pressed
Alma
Nominated
##ott
Sergio
canopy
152
Semifinals
devised
##irk
upwards
Traffic
Goddess
Move
beetles
138
spat
##anne
holdings
##SP
tangled
Whilst
Fowler
anthem
##ING
##ogy
snarled
moonlight
songwriting
tolerance
Worlds
exams
##pia
notices
sensitivity
poetic
Stephens
Boone
insect
reconstructed
Fresh
27th
balloon
##ables
Brendan
mug
##gee
1780
apex
exports
slides
Lahore
hiring
Shell
electorate
sexuality
poker
nonprofit
##imate
cone
##uce
Okinawa
superintendent
##HC
referenced
turret
Sprint
Citizen
equilibrium
Stafford
curb
Driver
Valerie
##rona
aching
impacts
##bol
observers
Downs
Shri
##uth
airports
##uda
assignments
curtains
solitary
icon
patrols
substances
Jasper
mountainous
Published
ached
##ingly
announce
dove
damaging
##tism
Primera
Dexter
limiting
batch
##uli
undergoing
refugee
Ye
admiral
pavement
##WR
##reed
pipeline
desires
Ramsey
Sheila
thickness
Brotherhood
Tea
instituted
Belt
Break
plots
##ais
masculine
##where
Theo
##aged
##mined
Experience
scratched
Ethiopian
Teaching
##nov
Aiden
Abe
Samoa
conditioning
##mous
Otherwise
fade
Jenks
##encing
Nat
##lain
Anyone
##kis
smirk
Riding
##nny
Bavarian
blessed
potatoes
Hook
##wise
likewise
hardened
Merry
amid
persecution
##sten
Elections
Hoffman
Pitt
##vering
distraction
exploitation
infamous
quote
averaging
healed
Rhythm
Germanic
Mormon
illuminated
guides
##ische
interfere
##ilized
rector
perennial
##ival
Everett
courtesy
##nham
Kirby
Mk
##vic
Medieval
##tale
Luigi
limp
##diction
Alive
greeting
shove
##force
##fly
Jasmine
Bend
Capt
Suzanne
ditch
134
##nning
Host
fathers
rebuilding
Vocal
wires
##manship
tan
Factor
fixture
##LS
Māori
Plate
pyramid
##umble
slap
Schneider
yell
##ulture
##tional
Goodbye
sore
##pher
depressed
##dox
pitching
Find
Lotus
##wang
strand
Teen
debates
prevalent
##bilities
exposing
hears
billed
##rse
reorganized
compelled
disturbing
displaying
##tock
Clinical
emotionally
##iah
Derbyshire
grouped
##quel
Bahrain
Journalism
IN
persistent
blankets
Crane
camping
Direct
proving
Lola
##dding
Corporate
birthplace
##boats
##ender
Figure
dared
Assam
precursor
##nched
Tribe
Restoration
slate
Meyrick
hunted
stroking
Earlier
Kind
polls
appeals
monetary
##reate
Kira
Langdon
explores
GPS
extensions
squares
Results
draped
announcer
merit
##ennial
##tral
##roved
##cion
robots
supervisor
snorted
##group
Cannon
procession
monkey
freeze
sleeves
Nile
verdict
ropes
firearms
extraction
tensed
EC
Saunders
##tches
diamonds
Marriage
##amble
curling
Amazing
##haling
unrelated
##roads
Daughter
cum
discarded
kidney
cliffs
forested
Candy
##lap
authentic
tablet
notation
##nburg
Bulldogs
Callum
Meet
mouths
coated
##xe
Truman
combinations
##mation
Steelers
Fan
Than
paternal
##father
##uti
Rebellion
inviting
Fun
theatres
##ي
##rom
curator
##cision
networking
Oz
drought
##ssel
granting
MBA
Shelby
Elaine
jealousy
Kyoto
shores
signaling
tenants
debated
Intermediate
Wise
##hes
##pu
Havana
duke
vicious
exited
servers
Nonetheless
Reports
explode
##beth
Nationals
offerings
Oval
conferred
eponymous
folklore
##NR
Shire
planting
1783
Zeus
accelerated
Constable
consuming
troubles
McCartney
texture
bust
Immigration
excavated
hopefully
##cession
##coe
##name
##ully
lining
Einstein
Venezuelan
reissued
minorities
Beatrice
crystals
##nies
circus
lava
Beirut
extinction
##shu
Becker
##uke
issuing
Zurich
extract
##esta
##rred
regulate
progression
hut
alcoholic
plea
AB
Norse
Hubert
Mansfield
ashamed
##put
Bombardment
stripes
electrons
Denise
horrified
Nor
arranger
Hay
Koch
##ddling
##iner
Birthday
Josie
deliberate
explorer
##jiang
##signed
Arrow
wiping
satellites
baritone
mobility
##rals
Dorset
turbine
Coffee
185
##lder
Cara
Colts
pits
Crossing
coral
##birth
Tai
zombie
smoothly
##hp
mates
##ady
Marguerite
##tary
puzzled
tapes
overly
Sonic
Prayer
Thinking
##uf
IEEE
obligation
##cliffe
Basil
redesignated
##mmy
nostrils
Barney
XIII
##phones
vacated
unused
Berg
##roid
Towards
viola
136
Event
subdivided
rabbit
recruiting
##nery
Namibia
##16
##ilation
recruits
Famous
Francesca
##hari
Goa
##lat
Karachi
haul
biblical
##cible
MGM
##rta
horsepower
profitable
Grandma
importantly
Martinez
incoming
##kill
beneficial
nominal
praying
##isch
gable
nail
noises
##ttle
Polytechnic
rub
##cope
Thor
audition
erotic
##ending
##iano
Ultimately
armoured
##mum
presently
pedestrian
##tled
Ipswich
offence
##ffin
##borne
Flemish
##hman
echo
##cting
auditorium
gentlemen
winged
##tched
Nicaragua
Unknown
prosperity
exhaust
pie
Peruvian
compartment
heights
disabilities
##pole
Harding
Humphrey
postponed
moths
Mathematical
Mets
posters
axe
##nett
Nights
Typically
chuckle
councillors
alternating
141
Norris
##ately
##etus
deficit
dreaming
cooler
oppose
Beethoven
##esis
Marquis
flashlight
headache
investor
responding
appointments
##shore
Elias
ideals
shades
torch
lingering
##real
pier
fertile
Diploma
currents
Snake
##horse
##15
Briggs
##ota
##hima
##romatic
Coastal
Kuala
ankles
Rae
slice
Hilton
locking
Approximately
Workshop
Niagara
strangely
##scence
functionality
advertisement
Rapid
Anders
ho
Soviets
packing
basal
Sunderland
Permanent
##fting
rack
tying
Lowell
##ncing
Wizard
mighty
tertiary
pencil
dismissal
torso
grasped
##yev
Sand
gossip
##nae
Beer
implementing
##19
##riya
Fork
Bee
##eria
Win
##cid
sailor
pressures
##oping
speculated
Freddie
originating
##DF
##SR
##outh
28th
melt
Brenda
lump
Burlington
USC
marginal
##bine
Dogs
swamp
cu
Ex
uranium
metro
spill
Pietro
seize
Chorus
partition
##dock
##media
engineered
##oria
conclusions
subdivision
##uid
Illustrated
Leading
##hora
Berkshire
definite
##books
##cin
##suke
noun
winced
Doris
dissertation
Wilderness
##quest
braced
arbitrary
kidnapping
Kurdish
##but
clearance
excavations
wanna
Allmusic
insult
presided
yacht
##SM
Honour
Tin
attracting
explosives
Gore
Bride
##ience
Packers
Devils
Observer
##course
Loser
##erry
##hardt
##mble
Cyrillic
undefeated
##stra
subordinate
##ame
Wigan
compulsory
Pauline
Cruise
Opposition
##ods
Period
dispersed
expose
##60
##has
Certain
Clerk
Wolves
##hibition
apparatus
allegiance
orbital
justified
thanked
##ević
Biblical
Carolyn
Graves
##tton
Hercules
backgrounds
replica
1788
aquatic
Mega
Stirling
obstacles
filing
Founder
vowels
Deborah
Rotterdam
surpassed
Belarusian
##ologists
Zambia
Ren
Olga
Alpine
bi
councillor
Oaks
Animals
eliminating
digit
Managing
##GE
laundry
##rdo
presses
slamming
Tudor
thief
posterior
##bas
Rodgers
smells
##ining
Hole
SUV
trombone
numbering
representations
Domingo
Paralympics
cartridge
##rash
Combined
shelves
Kraków
revision
##frame
Sánchez
##tracted
##bler
Alain
townships
sic
trousers
Gibbs
anterior
symmetry
vaguely
Castile
IRA
resembling
Penguin
##ulent
infections
##stant
raped
##pressive
worrying
brains
bending
JR
Evidence
Venetian
complexes
Jonah
850
exported
Ambrose
Gap
philanthropist
##atus
Marxist
weighing
##KO
##nath
Soldiers
chiefs
reject
repeating
shaky
Zürich
preserving
##xin
cigarettes
##break
mortar
##fin
Already
reproduction
socks
Waiting
amazed
##aca
dash
##path
Airborne
##harf
##get
descending
OBE
Sant
Tess
Lucius
enjoys
##ttered
##ivation
##ete
Leinster
Phillies
execute
geological
unfinished
Courts
SP
Beaver
Duck
motions
Platinum
friction
##aud
##bet
Parts
Stade
entirety
sprang
Smithsonian
coffin
prolonged
Borneo
##vise
unanimously
##uchi
Cars
Cassandra
Australians
##CT
##rgen
Louisa
spur
Constance
##lities
Patent
racism
tempo
##ssion
##chard
##nology
##claim
Million
Nichols
##dah
Numerous
ing
Pure
plantations
donor
##EP
##rip
convenience
##plate
dots
indirect
##written
Dong
failures
adapt
wizard
unfortunately
##gion
practitioners
economically
Enrique
unchanged
kingdoms
refined
definitions
lazy
worries
railing
##nay
Kaiser
##lug
cracks
sells
ninety
##WC
Directed
denotes
developmental
papal
unfortunate
disappointing
sixteenth
Jen
##urier
NWA
drifting
Horror
##chemical
behaviors
bury
surfaced
foreigners
slick
AND
##rene
##ditions
##teral
scrap
kicks
comprise
buddy
##anda
Mental
##ype
Dom
wines
Limerick
Luca
Rand
##won
Tomatoes
homage
geometric
##nted
telescope
Shelley
poles
##fan
shareholders
Autonomous
cope
intensified
Genoa
Reformation
grazing
##tern
Zhao
provisional
##bies
Con
##riel
Cynthia
Raleigh
vivid
threaten
Length
subscription
roses
Müller
##isms
robin
##tial
Laos
Stanton
nationalism
##clave
##ND
##17
##zz
staging
Busch
Cindy
relieve
##spective
packs
neglected
CBE
alpine
Evolution
uneasy
coastline
Destiny
Barber
Julio
##tted
informs
unprecedented
Pavilion
##bei
##ference
betrayal
awaiting
leaked
V8
puppet
adverse
Bourne
Sunset
collectors
##glass
##sque
copied
Demon
conceded
resembled
Rafe
Levy
prosecutor
##ject
flora
manned
deaf
Mosque
reminds
Lizzie
Products
Funny
cassette
congress
##rong
Rover
tossing
prompting
chooses
Satellite
cautiously
Reese
##UT
Huang
Gloucestershire
giggled
Kitty
##å
Pleasant
Aye
##ond
judging
1860s
intentionally
Hurling
aggression
##xy
transfers
employing
##fies
##oda
Archibald
Blessed
Ski
flavor
Rosie
##burgh
sunset
Scholarship
WC
surround
ranged
##jay
Degree
Houses
squeezing
limb
premium
Leningrad
steals
##inated
##ssie
madness
vacancy
hydraulic
Northampton
##prise
Marks
Boxing
##fying
academics
##lich
##TY
CDs
##lma
hardcore
monitors
paperback
cables
Dimitri
upside
advent
Ra
##clusive
Aug
Christchurch
objected
stalked
Simple
colonists
##laid
CT
discusses
fellowship
Carnival
cares
Miracle
pastoral
rooted
shortage
borne
Quentin
meditation
tapping
Novel
##ades
Alicia
Burn
famed
residency
Fernández
Johannesburg
Zhu
offended
Mao
outward
##inas
XV
denial
noticing
##ís
quarry
##hound
##amo
Bernie
Bentley
Joanna
mortgage
##rdi
##sumption
lenses
extracted
depiction
##RE
Networks
Broad
Revenue
flickered
virgin
flanked
##о
Enterprises
probable
Liberals
Falcons
drowning
phrases
loads
assumes
inhaled
awe
logs
slightest
spiders
waterfall
##pate
rocking
shrub
##uil
roofs
##gard
prehistoric
wary
##rak
TO
clips
sustain
treason
microphone
voter
Lamb
psychologist
wrinkled
##ères
mating
Carrier
340
##lbert
sensing
##rino
destiny
distract
weaker
UC
Nearly
neurons
spends
Apache
##rem
genuinely
wells
##lanted
stereo
##girl
Lois
Leaving
consul
fungi
Pier
Cyril
80s
Jungle
##tani
illustration
Split
##hana
Abigail
##patrick
1787
diminished
Selected
packaging
##EG
Martínez
communal
Manufacturing
sentiment
143
unwilling
praising
Citation
pills
##iti
##rax
muffled
neatly
workforce
Yep
leisure
Tu
##nding
Wakefield
ancestral
##uki
destructive
seas
Passion
showcase
##ceptive
heroic
142
exhaustion
Customs
##aker
Scholar
sliced
##inian
Direction
##OW
Swansea
aluminium
##eep
ceramic
McCoy
Career
Sector
chartered
Damascus
pictured
Interest
stiffened
Plateau
obsolete
##tant
irritated
inappropriate
overs
##nko
bail
Talent
Sur
ours
##nah
barred
legged
sociology
Bud
dictionary
##luk
Cover
obey
##oring
annoying
##dong
apprentice
Cyrus
Role
##GP
##uns
##bag
Greenland
Porsche
Rocket
##32
organism
##ntary
reliability
##vocation
##й
Found
##hine
motors
promoter
unfair
##oms
##note
distribute
eminent
rails
appealing
chiefly
meaningful
Stephan
##rehension
Consumer
psychiatric
bowler
saints
##iful
##н
1777
Pol
Dorian
Townsend
hastily
##jima
Quincy
Sol
fascinated
Scarlet
alto
Avon
certainty
##eding
Keys
##chu
Chu
##VE
ions
tributaries
Thanksgiving
##fusion
astronomer
oxide
pavilion
Supply
Casa
Bollywood
sadly
mutations
Keller
##wave
nationals
##rgo
##ym
predict
Catholicism
Vega
##eration
##ums
Mali
tuned
Lankan
Plans
radial
Bosnian
Lexi
##14
##ü
sacks
unpleasant
Empty
handles
##taking
Bon
switches
intently
tuition
antique
##jk
fraternity
notebook
Desmond
##sei
prostitution
##how
deed
##OP
501
Somewhere
Rocks
##mons
campaigned
frigate
gases
suppress
##hang
Merlin
Northumberland
dominate
expeditions
thunder
##ups
##rical
Cap
thorough
Ariel
##kind
renewable
constructing
pacing
terrorists
Bowen
documentaries
westward
##lass
##nage
Merchant
##ued
Beaumont
Din
##hian
Danube
peasant
Garrison
encourages
gratitude
reminding
stormed
##ouse
pronunciation
##ailed
Weekend
suggestions
##ffing
##DI
Active
Colombo
##logists
Merrill
##cens
Archaeological
Medina
captained
##yk
duel
cracking
Wilkinson
Guam
pickup
renovations
##ël
##izer
delighted
##iri
Weaver
##ctional
tens
##hab
Clint
##usion
##each
petals
Farrell
##sable
caste
##will
Ezra
##qi
##standing
thrilled
ambush
exhaled
##SU
Resource
blur
forearm
specifications
contingent
cafe
##iology
Antony
fundraising
grape
##rgy
turnout
##udi
Clifton
laboratories
Irvine
##opus
##lid
Monthly
Bihar
statutory
Roses
Emil
##rig
lumber
optimal
##DR
pumps
plaster
Mozambique
##aco
nightclub
propelled
##hun
ked
surplus
wax
##urai
pioneered
Sunny
imprint
Forget
Eliot
approximate
patronage
##bek
##ely
##mbe
Partnership
curl
snapping
29th
Patriarch
##jord
seldom
##ature
astronomy
Bremen
XIV
airborne
205
1778
recognizing
stranded
arrogant
bombardment
destined
ensured
146
robust
Davenport
Interactive
Offensive
Fi
prevents
probe
propeller
sorrow
Blade
mounting
automotive
##dged
wallet
201
lashes
Forrest
##ift
Cell
Younger
shouts
##cki
folds
##chet
Epic
yields
homosexual
tunes
##minate
##text
Manny
chemist
hindwings
##urn
pilgrimage
##sfield
##riff
MLS
##rive
Huntington
translates
Path
slim
##ndra
##oz
climax
commuter
desperation
##reet
denying
##rious
daring
seminary
polo
##clamation
Teatro
Torah
Cats
identities
Poles
photographed
fiery
popularly
##cross
winters
Hesse
##vio
Nurse
Senegal
Salon
prescribed
justify
##gues
##и
##orted
HQ
##hiro
evaluated
momentarily
##unts
Debbie
##licity
##TP
Mighty
Rabbit
##chal
Events
Savoy
##ht
Brandenburg
Bordeaux
##laus
Release
##IE
##kowski
1900s
SK
Strauss
##aly
Sonia
Updated
synagogue
McKay
flattened
370
clutch
contests
toast
evaluate
pope
heirs
jam
tutor
reverted
##ading
nonsense
hesitate
Lars
Ceylon
Laurie
##guchi
accordingly
customary
148
Ethics
Multiple
instincts
IGN
##ä
bullshit
##hit
##par
desirable
##ducing
##yam
alias
ashore
licenses
##lification
misery
147
Cola
assassinated
fiercely
##aft
las
goat
substrate
lords
Cass
Bridges
ICC
lasts
sights
reproductive
##asi
Ivory
Clean
fixing
##lace
seeming
aide
1850s
harassment
##FF
##LE
reasonably
##coat
##cano
NYC
1784
Fifty
immunity
Canadians
Cheng
comforting
meanwhile
##tera
##blin
breeds
glowed
##vour
Aden
##verted
##aded
##oral
neat
enforced
poisoning
##ews
##hone
enforce
predecessors
survivor
Month
unfamiliar
pierced
waived
dump
responds
Mai
Declan
angular
Doesn
interpretations
##yar
invest
Dhaka
policeman
Congregation
Eighth
painfully
##este
##vior
Württemberg
##cles
blockade
encouragement
##fie
Caucasus
Malone
Universidad
utilize
Nissan
inherent
151
agreeing
syllable
determines
Protocol
conclude
##gara
40th
Xu
Taiwanese
##ather
boiler
printer
Lacey
titular
Klaus
Fallon
Wembley
fox
Chandra
Governorate
obsessed
##Ps
micro
##25
Cooke
gymnasium
weaving
Shall
Hussein
glaring
softball
Reader
Dominion
Trouble
varsity
Cooperation
Chaos
Kang
Kramer
Eisenhower
proves
Connie
consortium
governors
Bethany
opener
Normally
Willy
linebacker
Regent
Used
AllMusic
Twilight
##shaw
Companion
Tribunal
simpler
##gam
Experimental
Slovenian
cellar
deadline
trout
Hubbard
ads
idol
##hetto
Granada
clues
salmon
1700
Omega
Caldwell
softened
Bills
Honolulu
##gn
Terrace
suitcase
##IL
frantic
##oons
Abbot
Sitting
Fortress
Riders
sickness
enzymes
trustee
Bern
forged
##13
##ruff
##rl
##versity
inspector
champagne
##held
##FI
hereditary
Taliban
handball
##wine
Sioux
##dicated
honoured
139
##tude
Skye
meanings
##rkin
cardiac
analyzed
vegetable
##FS
Royals
dial
freelance
##fest
partisan
petroleum
ridden
Lincolnshire
panting
##comb
presidents
Haley
##chs
contributes
Jew
discoveries
panicked
Woody
eyelids
Fate
Tulsa
mg
whiskey
zombies
Wii
##udge
investigators
##bull
centred
##screen
Bone
Lana
##oise
forts
##ske
Conan
Lyons
##writing
SH
##ride
rhythmic
154
##llah
pioneers
##bright
captivity
Sanchez
Oman
##mith
Flint
Platform
##ioned
emission
packet
Persia
##formed
takeover
tempted
Vance
Few
Toni
receptions
##ن
exchanges
Camille
whale
Chronicles
##rent
##ushing
##rift
Alto
Genus
##asing
onward
foremost
longing
Rockefeller
containers
##cribe
intercepted
##olt
pleading
Bye
bee
##umbling
153
undertake
Izzy
cheaper
Ultra
validity
##pse
Sa
hovering
##pert
vintage
engraved
##rise
farmland
##ever
##ifier
Atlantis
propose
Catalonia
plunged
##edly
demonstrates
gig
##cover
156
Osborne
cowboy
herd
investigator
loops
Burning
rests
Instrumental
embarrassing
focal
install
readings
swirling
Chatham
parameter
##zin
##holders
Mandarin
Moody
converting
Escape
warnings
##chester
incarnation
##ophone
adopting
##lins
Cromwell
##laws
Axis
Verde
Kappa
Schwartz
Serbs
caliber
Wanna
Chung
##ality
nursery
principally
Bulletin
likelihood
logging
##erty
Boyle
supportive
twitched
##usive
builds
Marseille
omitted
motif
Lands
##lusion
##ssed
Barrow
Airfield
Harmony
WWF
endured
merging
convey
branding
examinations
167
Italians
##dh
dude
1781
##teau
crawling
thoughtful
clasped
concluding
brewery
Moldova
Wan
Towers
Heidelberg
202
##ict
Lagos
imposing
##eval
##serve
Bacon
frowning
thirteenth
conception
calculations
##ович
##mile
##ivated
mutation
strap
##lund
demographic
nude
perfection
stocks
##renched
##dit
Alejandro
bites
fragment
##hack
##rchy
GB
Surgery
Berger
punish
boiling
consume
Elle
Sid
Dome
relies
Crescent
treasurer
Bloody
1758
upheld
Guess
Restaurant
signatures
font
millennium
mural
stakes
Abel
hailed
insists
Alumni
Breton
##jun
digits
##FM
##thal
Talking
motive
reigning
babe
masks
##ø
Shaun
potato
sour
whitish
Somali
##derman
##rab
##wy
chancel
telecommunications
Noise
messenger
tidal
grinding
##ogenic
Rebel
constituent
peripheral
recruitment
##ograph
##tler
pumped
Ravi
poked
##gley
Olive
diabetes
discs
liking
sting
fits
stir
Mari
Sega
creativity
weights
Macau
mandated
Bohemia
disastrous
Katrina
Baku
Rajasthan
waiter
##psis
Siberia
verbs
##truction
patented
1782
##ndon
Relegated
Hunters
Greenwood
Shock
accusing
skipped
Sessions
markers
subset
monumental
Viola
comparative
Alright
Barbados
setup
Session
standardized
##ík
##sket
appoint
AFB
Nationalist
##WS
Troop
leaped
Treasure
goodness
weary
originates
100th
compassion
expresses
recommend
168
composing
seventeenth
Tex
Atlético
bald
Finding
Presidency
Sharks
favoured
inactive
##lter
suffix
princes
brighter
##ctus
classics
defendants
culminated
terribly
Strategy
evenings
##ção
##iver
##urance
absorb
##rner
Territories
RBI
soothing
Martín
concurrently
##tr
Nicholson
fibers
swam
##oney
Allie
Algerian
Dartmouth
Mafia
##bos
##tts
Councillor
vocabulary
##bla
##lé
intending
##dler
Guerrero
sunshine
pedal
##TO
administrators
periodic
scholarships
Loop
Madeline
exaggerated
##ressed
Regan
##cellular
Explorer
##oids
Alexandre
vows
Reporter
Unable
Average
absorption
##bedience
Fortunately
Auxiliary
Grandpa
##HP
##ovo
potent
temporal
adrenaline
##udo
confusing
guiding
Dry
qualifications
joking
wherein
heavyweight
##ices
nightmares
pharmaceutical
Commanding
##aled
##ove
Gregor
##UP
censorship
degradation
glorious
Austro
##rench
380
Miriam
sped
##orous
offset
##KA
fined
specialists
Pune
João
##dina
propped
fungus
##ς
frantically
Gabrielle
Hare
committing
##plied
Ask
Wilmington
stunt
numb
warmer
preacher
earnings
##lating
integer
##ija
federation
homosexuality
##cademia
epidemic
grumbled
shoving
Milk
Satan
Tobias
innovations
##dington
geology
memoirs
##IR
spared
culminating
Daphne
Focus
severed
stricken
Paige
Mans
flats
Russo
communes
litigation
strengthening
##powered
Staffordshire
Wiltshire
Painting
Watkins
##د
specializes
Select
##rane
##aver
Fulton
playable
##VN
openings
sampling
##coon
##21
Allah
travelers
allocation
##arily
Loch
##hm
commentators
fulfilled
##troke
Emeritus
Vanderbilt
Vijay
pledged
##tative
diagram
drilling
##MD
##plain
Edison
productivity
31st
##rying
##ption
##gano
##oration
##bara
posture
bothering
platoon
politely
##inating
redevelopment
Job
##vale
stark
incorrect
Mansion
renewal
threatens
Bahamas
fridge
##tata
Uzbekistan
##edia
Sainte
##mio
gaps
neural
##storm
overturned
Preservation
shields
##ngo
##physics
ah
gradual
killings
##anza
consultation
premiership
Felipe
coincidence
##ène
##any
Handbook
##loaded
Edit
Guns
arguably
##ş
compressed
depict
seller
##qui
Kilkenny
##kling
Olympia
librarian
##acles
dramas
JP
Kit
Maj
##lists
proprietary
##nged
##ettes
##tok
exceeding
Lock
induction
numerical
##vist
Straight
foyer
imaginary
##pop
violinist
Carla
bouncing
##ashi
abolition
##uction
restoring
scenic
##č
Doom
overthrow
para
##vid
##ughty
Concord
HC
cocaine
deputies
##aul
visibility
##wart
Kapoor
Hutchinson
##agan
flashes
kn
decreasing
##ronology
quotes
vain
satisfying
##iam
##linger
310
Hanson
fauna
##zawa
##rrel
Trenton
##VB
Employment
vocational
Exactly
bartender
butterflies
tow
##chers
##ocks
pigs
merchandise
##game
##pine
Shea
##gration
Connell
Josephine
monopoly
##dled
Cobb
warships
cancellation
someday
stove
##Cs
candidacy
superhero
unrest
Toulouse
admiration
undergone
whirled
Reconnaissance
costly
##ships
290
Cafe
amber
Tory
##mpt
definitive
##dress
proposes
redesigned
acceleration
##asa
##raphy
Presley
exits
Languages
##cel
Mode
spokesperson
##tius
Ban
forthcoming
grounded
ACC
compelling
logistics
retailers
abused
##gating
soda
##yland
##lution
Landmark
XVI
blush
##tem
hurling
dread
Tobago
Foley
##uad
scenarios
##mentation
##rks
Score
fatigue
hairy
correspond
##iard
defences
confiscated
##rudence
1785
Formerly
Shot
advertised
460
Text
ridges
Promise
Dev
exclusion
NHS
tuberculosis
rockets
##offs
sparkling
256
disappears
mankind
##hore
HP
##omo
taxation
Multi
DS
Virgil
##ams
Dell
stacked
guessing
Jump
Nope
cheer
hates
ballots
overlooked
analyses
Prevention
maturity
dos
##cards
##lect
Mare
##yssa
Petty
##wning
differing
iOS
##ior
Joachim
Sentinel
##nstein
90s
Pamela
480
Asher
##lary
Vicente
landings
portray
##rda
##xley
Virtual
##uary
finances
Jain
Somebody
Tri
behave
Michele
##ider
dwellings
FAA
Gallagher
##lide
Monkey
195
aforementioned
##rism
##bey
##kim
##puted
Mesa
hopped
unopposed
recipients
Reality
Been
gritted
149
playground
pillar
##rone
Guinness
##tad
Théâtre
depended
Tipperary
Reuben
frightening
wooded
Target
globally
##uted
Morales
Baptiste
drunken
Institut
characterised
##chemistry
Strip
discrete
Premiership
##zzling
gazing
Outer
##quisition
Sikh
Booker
##yal
contemporaries
Jericho
##chan
##physical
##witch
Militia
##rez
##zard
dangers
##utter
##₀
Programs
darling
participates
railroads
##ienne
behavioral
bureau
##rook
161
Hicks
##rises
Comes
inflicted
bees
kindness
norm
##ković
generators
##pard
##omy
##ili
methodology
Alvin
façade
latitude
##plified
DE
Morse
##mered
educate
intersects
##MF
##cz
##vated
AL
##graded
##fill
constitutes
artery
feudal
avant
cautious
##ogue
immigrated
##chenko
Saul
Clinic
Fang
choke
Cornelius
flexibility
temperate
pins
##erson
oddly
inequality
157
Natasha
Sal
##uter
215
aft
blinking
##ntino
northward
Exposition
cookies
Wedding
impulse
Overseas
terrifying
##ough
Mortimer
##see
440
https
og
imagining
##cars
Nicola
exceptionally
threads
##cup
Oswald
Provisional
dismantled
deserves
1786
Fairy
discourse
Counsel
departing
Arc
guarding
##orse
420
alterations
vibrant
Em
squinted
terrace
rowing
Led
accessories
SF
Sgt
cheating
Atomic
##raj
Blackpool
##iary
boarded
substituted
bestowed
lime
kernel
##jah
Belmont
shaken
sticky
retrospective
Louie
migrants
weigh
sunglasses
thumbs
##hoff
excavation
##nks
Extra
Polo
motives
Drum
infrared
tastes
berth
verge
##stand
programmed
warmed
Shankar
Titan
chromosome
cafeteria
dividing
pepper
CPU
Stevie
satirical
Nagar
scowled
Died
backyard
##gata
##reath
##bir
Governors
portraying
##yah
Revenge
##acing
1772
margins
Bahn
OH
lowland
##razed
catcher
replay
##yoshi
Seriously
##licit
Aristotle
##ald
Habsburg
weekday
Secretariat
CO
##dly
##joy
##stad
litre
ultra
##cke
Mongol
Tucson
correlation
compose
traps
Groups
Hai
Salvatore
##dea
cents
##eese
concession
clash
Trip
Panzer
Moroccan
cruisers
torque
Ba
grossed
##arate
restriction
concentrating
FDA
##Leod
##ones
Scholars
##esi
throbbing
specialised
##heses
Chicken
##fia
##ificant
Erich
Residence
##trate
manipulation
namesake
##tom
Hoover
cue
Lindsey
Lonely
275
##HT
combustion
subscribers
Punjabi
respects
Jeremiah
penned
##gor
##rilla
suppression
##tration
Crimson
piston
Derry
crimson
lyrical
oversee
portrays
CF
Districts
Lenin
Cora
searches
clans
VHS
##hel
Jacqueline
Redskins
Clubs
desktop
indirectly
alternatives
marijuana
suffrage
##smos
Irwin
##liff
Process
##hawks
Sloane
##bson
Sonata
yielded
Flores
##ares
armament
adaptations
integrate
neighbours
shelters
##tour
Skinner
##jet
##tations
1774
Peterborough
##elles
ripping
Liang
Dickinson
charities
Rwanda
monasteries
crossover
racist
barked
guerrilla
##ivate
Grayson
##iques
##vious
##got
Rolls
denominations
atom
affinity
##delity
Wish
##inted
##inae
interrogation
##cey
##erina
##lifting
192
Sands
1779
mast
Likewise
##hyl
##oft
contempt
##por
assaulted
fills
establishments
Mal
consulted
##omi
##sight
greet
##roma
##egan
Pulitzer
##rried
##dius
##ractical
##voked
Hasan
CB
##zzy
Romanesque
Panic
wheeled
recorder
##tters
##warm
##gly
botanist
Balkan
Lockheed
Polly
farewell
suffers
purchases
Eaton
##80
Quick
commenting
Saga
beasts
hides
motifs
##icks
Alonso
Springer
Wikipedia
circulated
encoding
jurisdictions
snout
UAE
Integrated
unmarried
Heinz
##lein
##figured
deleted
##tley
Zen
Cycling
Fuel
Scandinavian
##rants
Conner
reef
Marino
curiously
lingered
Gina
manners
activism
Mines
Expo
Micah
promotions
Server
booked
derivatives
eastward
detailing
reelection
##chase
182
Campeonato
Po
158
Peel
winger
##itch
canyon
##pit
LDS
A1
##shin
Giorgio
pathetic
##rga
##mist
Aren
##lag
confronts
motel
textbook
shine
turbines
1770
Darcy
##cot
Southeastern
##lessness
Banner
recognise
stray
Kitchen
paperwork
realism
Chrysler
filmmakers
fishermen
##hetic
variously
Vishnu
fiddle
Eddy
Origin
##tec
##ulin
Flames
Rs
bankrupt
Extreme
Pomeranian
##emption
ratified
##iu
jockey
Stratford
##ivating
##oire
Babylon
pardon
AI
affordable
deities
disturbance
Trying
##sai
Ida
Papers
advancement
70s
archbishop
Luftwaffe
announces
tugging
##lphin
##sistence
##eel
##ishes
ambition
aura
##fled
##lected
##vue
Prasad
boiled
clarity
Violin
investigative
routing
Yankee
##uckle
McMahon
bugs
eruption
##rooms
Minutes
relics
##ckle
##nse
sipped
valves
weakly
##ital
Middleton
collided
##quer
bamboo
insignia
Tyne
exercised
Ninth
echoing
polynomial
considerations
lunged
##bius
objections
complain
disguised
plaza
##VC
institutes
Judicial
ascent
imminent
Waterford
hello
Lumpur
Niger
Goldman
vendors
Kensington
Wren
browser
##bner
##tri
##mize
##pis
##lea
Cheyenne
Bold
Settlement
Hollow
Paralympic
axle
##toire
##actic
impose
perched
utilizing
slips
Benz
Michaels
manipulate
Chiang
##mian
Dolphins
prohibition
attacker
ecology
Estadio
##SB
##uild
attracts
recalls
glacier
lad
##rima
Barlow
kHz
melodic
##aby
##iracy
assumptions
Cornish
##aru
DOS
Maddie
##mers
lyric
Luton
nm
##tron
Reno
Fin
YOU
Broadcast
Finch
sensory
##bent
Jeep
##uman
additionally
Buildings
businessmen
treaties
235
Stranger
gateway
Charlton
accomplishments
Diary
apologized
zinc
histories
supplier
##tting
162
asphalt
Treatment
Abbas
##pating
##yres
Bloom
sedan
soloist
##cum
antagonist
denounced
Fairfax
##aving
##enko
noticeable
Budget
Buckingham
Snyder
retreating
Jai
spoon
invading
giggle
woven
gunfire
arrests
##vered
##come
respiratory
violet
##aws
Byrd
shocking
tenant
Jamaican
Ottomans
Seal
theirs
##isse
##48
cooperate
peering
##nius
163
Composer
organist
Mongolian
Bauer
Spy
collects
prophecy
congregations
##moor
Brick
calculation
fixtures
exempt
##dden
Ada
Thousand
##lue
tracing
##achi
bodyguard
vicar
supplying
Łódź
interception
monitored
##heart
Paso
overlap
annoyance
##dice
yellowish
stables
elders
illegally
honesty
##oar
skinny
spinal
##puram
Bourbon
##cor
flourished
Medium
##stics
##aba
Follow
##ckey
stationary
##scription
dresser
scrutiny
Buckley
Clearly
##SF
Lyrics
##heimer
drying
Oracle
internally
rains
##last
Enemy
##oes
McLean
Ole
phosphate
Rosario
Rifles
##mium
battered
Pepper
Presidents
conquer
Château
castles
##aldo
##ulf
Depending
Lesser
Boom
trades
Peyton
164
emphasize
accustomed
SM
Ai
Classification
##mins
##35
##rons
leak
piled
deeds
lush
##self
beginnings
breathless
1660
McGill
##ago
##chaft
##gies
humour
Bomb
securities
Might
##zone
##eves
Matthias
Movies
Levine
vengeance
##ads
Challenger
Misty
Traditionally
constellation
##rass
deepest
workplace
##oof
##vina
impatient
##ML
Mughal
Alessandro
scenery
Slater
postseason
troupe
##ń
Volunteers
Facility
militants
Reggie
sanctions
Expeditionary
Nam
countered
interpret
Basilica
coding
expectation
Duffy
def
Tong
wakes
Bowling
Vehicle
Adler
salad
intricate
stronghold
medley
##uries
##bur
joints
##rac
##yx
##IO
Ordnance
Welch
distributor
Ark
cavern
trench
Weiss
Mauritius
decreases
docks
eagerly
irritation
Matilda
biographer
Visiting
##marked
##iter
##ear
##gong
Moreno
attendant
Bury
instrumentation
theologian
clit
nuns
symphony
translate
375
loser
##user
##VR
##meter
##orious
harmful
##yuki
Commissioners
Mendoza
sniffed
Hulk
##dded
##ulator
##nz
Donnell
##eka
deported
Met
SD
Aerospace
##cultural
##odes
Fantastic
cavity
remark
emblem
fearing
##iance
ICAO
Liberia
stab
##yd
Pac
Gymnasium
IS
Everton
##vanna
mantle
##ief
Ramon
##genic
Shooting
Smoke
Random
Africans
MB
tavern
bargain
voluntarily
Ion
Peoples
Rusty
attackers
Patton
sins
##cake
Hat
moderately
##hala
##alia
requesting
mechanic
##eae
Seine
Robbins
##ulum
susceptible
Bravo
Slade
Strasbourg
rubble
entrusted
Creation
##amp
smoothed
##uintet
evenly
reviewers
skip
Sculpture
177
Rough
##rrie
Reeves
##cede
Administrator
garde
minus
carriages
grenade
Ninja
fuscous
##kley
Punk
contributors
Aragon
Tottenham
##cca
##sir
VA
laced
dealers
##sonic
crisp
harmonica
Artistic
Butch
Andes
Farmers
corridors
unseen
##tium
Countries
Lone
envisioned
Katy
##lang
##cc
Quarterly
##neck
consort
##aceae
bidding
Corey
concurrent
##acts
##gum
Highness
##lient
##rators
arising
##unta
pathways
49ers
bolted
complaining
ecosystem
libretto
Ser
narrated
212
Soft
influx
##dder
incorporation
plagued
tents
##ddled
1750
Risk
citation
Tomas
hostilities
seals
Bruins
Dominique
attic
competent
##UR
##cci
hugging
Breuning
bacterial
Shrewsbury
vowed
eh
elongated
hangs
render
centimeters
##ficient
Mu
turtle
besieged
##gaard
grapes
bravery
collaborations
deprived
##amine
##using
##gins
arid
##uve
coats
hanged
##sting
Pa
prefix
##ranged
Exit
Chain
Flood
Materials
suspicions
##ö
hovered
Hidden
##state
Malawi
##24
Mandy
norms
fascinating
airlines
delivers
##rust
Cretaceous
spanned
pillows
##onomy
jar
##kka
regent
fireworks
morality
discomfort
lure
uneven
##jack
Lucian
171
archaeology
##til
mornings
Billie
Marquess
impending
spilling
tombs
##volved
Celia
Coke
underside
##bation
Vaughn
Daytona
Godfrey
Pascal
Alien
##sign
172
##lage
iPhone
Gonna
genocide
##rber
oven
endure
dashed
simultaneous
##phism
Wally
##rō
ants
predator
reissue
##aper
Speech
funk
Rudy
claw
Hindus
Numbers
Bing
lantern
##aurus
scattering
poisoned
##active
Andrei
algebraic
baseman
##ritz
Gregg
##cola
selections
##putation
lick
Laguna
##IX
Sumatra
Warning
turf
buyers
Burgess
Oldham
exploit
worm
initiate
strapped
tuning
filters
haze
##е
##ledge
##ydro
##culture
amendments
Promotion
##union
Clair
##uria
petty
shutting
##eveloped
Phoebe
Zeke
conducts
grains
clashes
##latter
illegitimate
willingly
Deer
Lakers
Reference
chaplain
commitments
interrupt
salvation
Panther
Qualifying
Assessment
cancel
efficiently
attorneys
Dynamo
impress
accession
clinging
randomly
reviewing
Romero
Cathy
charting
clapped
rebranded
Azerbaijani
coma
indicator
punches
##tons
Sami
monastic
prospects
Pastor
##rville
electrified
##CI
##utical
tumbled
Chef
muzzle
selecting
UP
Wheel
protocols
##tat
Extended
beautifully
nests
##stal
Andersen
##anu
##³
##rini
kneeling
##reis
##xia
anatomy
dusty
Safe
turmoil
Bianca
##elo
analyze
##ر
##eran
podcast
Slovene
Locke
Rue
##retta
##uni
Person
Prophet
crooked
disagreed
Versailles
Sarajevo
Utrecht
##ogen
chewing
##ception
##iidae
Missile
attribute
majors
Arch
intellectuals
##andra
ideological
Cory
Salzburg
##fair
Lot
electromagnetic
Distribution
##oper
##pered
Russ
Terra
repeats
fluttered
Riga
##ific
##gt
cows
Hair
labelled
protects
Gale
Personnel
Düsseldorf
Moran
rematch
##OE
Slow
forgiveness
##ssi
proudly
Macmillan
insist
undoubtedly
Québec
Violence
##yuan
##aine
mourning
linen
accidental
##iol
##arium
grossing
lattice
maneuver
##marine
prestige
petrol
gradient
invasive
militant
Galerie
widening
##aman
##quist
disagreement
##ales
creepy
remembers
buzz
##erial
Exempt
Dirk
mon
Addison
##inen
deposed
##agon
fifteenth
Hang
ornate
slab
##lades
Fountain
contractors
das
Warwickshire
1763
##rc
Carly
Essays
Indy
Ligue
greenhouse
slit
##sea
chewed
wink
##azi
Playhouse
##kon
Gram
Ko
Samson
creators
revive
##rians
spawned
seminars
Craft
Tall
diverted
assistants
computational
enclosure
##acity
Coca
##eve
databases
Drop
##loading
##hage
Greco
Privy
entrances
pork
prospective
Memories
robes
##market
transporting
##lik
Rudolph
Horton
visually
##uay
##nja
Centro
Tor
Howell
##rsey
admitting
postgraduate
herbs
##att
Chin
Rutherford
##bot
##etta
Seasons
explanations
##bery
Friedman
heap
##ryl
##sberg
jaws
##agh
Choi
Killing
Fanny
##suming
##hawk
hopeful
##aid
Monty
gum
remarkably
Secrets
disco
harp
advise
##avia
Marathi
##cycle
Truck
abbot
sincere
urine
##mology
masked
bathing
##tun
Fellows
##TM
##gnetic
owl
##jon
hymn
##leton
208
hostility
##cée
baked
Bottom
##AB
shudder
##ater
##von
##hee
reorganization
Cycle
##phs
Lex
##style
##rms
Translation
##erick
##imeter
##ière
attested
Hillary
##DM
gal
wander
Salle
##laming
Perez
Pit
##LP
USAF
contexts
Disease
blazing
aroused
razor
walled
Danielle
Mont
Funk
royalty
thee
203
donors
##erton
famously
processors
reassigned
welcoming
Goldberg
##quities
undisclosed
Orient
Patty
vaccine
refrigerator
Cypriot
consonant
##waters
176
sober
##lement
Racecourse
##uate
Luckily
Selection
conceptual
vines
Breaking
wa
lions
oversight
sheltered
Dancer
ponds
borrow
##BB
##pulsion
Daly
##eek
fertility
spontaneous
Worldwide
gasping
##tino
169
ABS
Vickers
ambient
energetic
prisons
##eson
Stacy
##roach
GmbH
Afro
Marin
farmhouse
pinched
##cursion
##sp
Sabine
##pire
181
nak
swelling
humble
perfume
##balls
Rai
cannons
##taker
Married
Maltese
canals
interceptions
hats
lever
slowing
##ppy
Nike
Silas
Scarborough
skirts
166
inauguration
Shuttle
alloy
beads
belts
Compton
Cause
battling
critique
surf
Dock
roommate
##ulet
invade
Garland
##slow
nutrition
persona
##zam
Wichita
acquaintance
coincided
##cate
Dracula
clamped
##gau
overhaul
##broken
##rrier
melodies
ventures
Paz
convex
Roots
##holding
Tribute
transgender
##ò
chimney
##riad
Ajax
Thereafter
messed
nowadays
pH
##100
##alog
Pomerania
##yra
Rossi
glove
##TL
Races
##asily
tablets
Jase
##ttes
diner
##rns
Hu
Mohan
anytime
weighted
remixes
Dove
cherry
imports
##urity
GA
##TT
##iated
##sford
Clarkson
evidently
rugged
Dust
siding
##ometer
acquitted
choral
##mite
infants
Domenico
gallons
Atkinson
gestures
slated
##xa
Archaeology
unwanted
##ibes
##duced
premise
Colby
Geelong
disqualified
##pf
##voking
simplicity
Walkover
Qaeda
Warden
##bourg
##ān
Invasion
Babe
harness
183
##tated
maze
Burt
bedrooms
##nsley
Horizon
##oast
minimize
peeked
MLA
Trains
tractor
nudged
##iform
Growth
Benton
separates
##about
##kari
buffer
anthropology
brigades
foil
##wu
Domain
licking
whore
##rage
##sham
Initial
Courthouse
Rutgers
dams
villains
supermarket
##brush
Brunei
Palermo
arises
Passenger
outreach
##gill
Labrador
McLaren
##uy
Lori
##fires
Heads
magistrate
¹⁄₂
Weapons
##wai
##roke
projecting
##ulates
bordering
McKenzie
Pavel
midway
Guangzhou
streamed
racer
##lished
eccentric
spectral
206
##mism
Wilde
Grange
preparatory
lent
##tam
starving
Gertrude
##cea
##ricted
Breakfast
Mira
blurted
derive
##lair
blunt
sob
Cheltenham
Henrik
reinstated
intends
##istan
unite
##ector
playful
sparks
mapped
Cadet
luggage
prosperous
##ein
salon
##utes
Biological
##rland
Tyrone
buyer
##lose
amounted
Saw
smirked
Ronan
Reviews
Adele
trait
##proof
Bhutan
Ginger
##junct
digitally
stirring
##isted
coconut
Hamlet
Dinner
Scale
pledge
##RP
Wrong
Goal
Panel
therapeutic
elevations
infectious
priesthood
##inda
Guyana
diagnostic
##mbre
Blackwell
sails
##arm
literal
periodically
gleaming
Robot
Rector
##abulous
##tres
Reaching
Romantic
CP
Wonderful
##tur
ornamental
##nges
traitor
##zilla
genetics
mentioning
##eim
resonance
Areas
Shopping
##nard
Gail
Solid
##rito
##mara
Willem
Chip
Matches
Volkswagen
obstacle
Organ
invites
Coral
attain
##anus
##dates
Midway
shuffled
Cecilia
dessert
Gateway
Ch
Napoleonic
Petroleum
jets
goose
striped
bowls
vibration
Sims
nickel
Thirteen
problematic
intervene
##grading
##unds
Mum
semifinal
Radical
##izations
refurbished
##sation
##harine
Maximilian
cites
Advocate
Potomac
surged
preserves
Curry
angled
ordination
##pad
Cade
##DE
##sko
researched
torpedoes
Resident
wetlands
hay
applicants
depart
Bernstein
##pic
##ario
##rae
favourable
##wari
##р
metabolism
nobleman
Defaulted
calculate
ignition
Celebrity
Belize
sulfur
Flat
Sc
USB
flicker
Hertfordshire
Sept
CFL
Pasadena
Saturdays
Titus
##nir
Canary
Computing
Isaiah
##mler
formidable
pulp
orchid
Called
Solutions
kilograms
steamer
##hil
Doncaster
successors
Stokes
Holstein
##sius
sperm
API
Rogue
instability
Acoustic
##rag
159
undercover
Wouldn
##pra
##medical
Eliminated
honorable
##chel
denomination
abrupt
Buffy
blouse
fi
Regardless
Subsequent
##rdes
Lover
##tford
bacon
##emia
carving
##cripts
Massacre
Ramos
Latter
##ulp
ballroom
##gement
richest
bruises
Rest
Wiley
##aster
explosions
##lastic
Edo
##LD
Mir
choking
disgusted
faintly
Barracks
blasted
headlights
Tours
ensued
presentations
##cale
wrought
##oat
##coa
Quaker
##sdale
recipe
##gny
corpses
##liance
comfortably
##wat
Landscape
niche
catalyst
##leader
Securities
messy
##RL
Rodrigo
backdrop
##opping
treats
Emilio
Anand
bilateral
meadow
VC
socialism
##grad
clinics
##itating
##ppe
##ymphonic
seniors
Advisor
Armoured
Method
Alley
##orio
Sad
fueled
raided
Axel
NH
rushes
Dixie
Otis
wrecked
##22
capitalism
café
##bbe
##pion
##forcing
Aubrey
Lublin
Whenever
Sears
Scheme
##lana
Meadows
treatise
##RI
##ustic
sacrifices
sustainability
Biography
mystical
Wanted
multiplayer
Applications
disliked
##tisfied
impaired
empirical
forgetting
Fairfield
Sunni
blurred
Growing
Avalon
coil
Camera
Skin
bruised
terminals
##fted
##roving
Commando
##hya
##sper
reservations
needles
dangling
##rsch
##rsten
##spect
##mbs
yoga
regretted
Bliss
Orion
Rufus
glucose
Olsen
autobiographical
##dened
222
humidity
Shan
##ifiable
supper
##rou
flare
##MO
campaigning
descend
socio
declares
Mounted
Gracie
Arte
endurance
##ety
Copper
costa
airplay
##MB
Proceedings
dislike
grimaced
occupants
births
glacial
oblivious
cans
installment
muddy
##ł
captains
pneumonia
Quiet
Sloan
Excuse
##nine
Geography
gymnastics
multimedia
drains
Anthology
Gear
cylindrical
Fry
undertaking
##pler
##tility
Nan
##recht
Dub
philosophers
piss
Atari
##pha
Galicia
México
##nking
Continuing
bump
graveyard
persisted
Shrine
##erapy
defects
Advance
Bomber
##oil
##ffling
cheerful
##lix
scrub
##eto
awkwardly
collaborator
fencing
##alo
prophet
Croix
coughed
##lication
roadway
slaughter
elephants
##erated
Simpsons
vulnerability
ivory
Birth
lizard
scarce
cylinders
fortunes
##NL
Hate
Priory
##lai
McBride
##copy
Lenny
liaison
Triangle
coronation
sampled
savage
amidst
Grady
whatsoever
instinctively
Reconstruction
insides
seizure
Drawing
##rlin
Antioch
Gao
Díaz
1760
Sparks
##tien
##bidae
rehearsal
##bbs
botanical
##hers
compensate
wholesale
Seville
shareholder
prediction
astronomical
Reddy
hardest
circling
whereabouts
termination
Rep
Assistance
Dramatic
Herb
##ghter
climbs
188
Poole
301
##pable
wit
##istice
Walters
relying
Jakob
##redo
proceeding
Langley
affiliates
ou
##allo
##holm
Samsung
##ishi
Missing
Xi
vertices
Claus
foam
restless
##uating
##sso
##ttering
Philips
delta
bombed
Catalogue
coaster
Ling
Willard
satire
410
Composition
Net
Orioles
##ldon
fins
Palatinate
Woodward
tease
tilt
brightness
##70
##bbling
##loss
##dhi
##uilt
Whoever
##yers
hitter
Elton
Extension
ace
Affair
restructuring
##loping
Paterson
hi
##rya
spouse
Shay
Himself
piles
preaching
##gical
bikes
Brave
expulsion
Mirza
stride
Trees
commemorated
famine
masonry
Selena
Watt
Banking
Rancho
Stockton
dip
tattoos
Vlad
acquainted
Flyers
ruthless
fourteenth
illustrate
##akes
EPA
##rows
##uiz
bumped
Designed
Leaders
mastered
Manfred
swirled
McCain
##rout
Artemis
rabbi
flinched
upgrades
penetrate
shipyard
transforming
caretaker
##eiro
Maureen
tightening
##founded
RAM
##icular
##mper
##rung
Fifteen
exploited
consistency
interstate
##ynn
Bridget
contamination
Mistress
##rup
coating
##FP
##jective
Libyan
211
Gemma
dependence
shrubs
##ggled
Germain
retaliation
traction
##PP
Dangerous
terminology
psychiatrist
##garten
hurdles
Natal
wasting
Weir
revolves
stripe
##reased
preferences
##entation
##lde
##áil
##otherapy
Flame
##ologies
viruses
Label
Pandora
veil
##ogical
Coliseum
Cottage
creeping
Jong
lectured
##çaise
shoreline
##fference
##hra
Shade
Clock
Faye
bilingual
Humboldt
Operating
##fter
##was
algae
towed
amphibious
Parma
impacted
smacked
Piedmont
Monsters
##omb
Moor
##lberg
sinister
Postal
178
Drummond
Sign
textbooks
hazardous
Brass
Rosemary
Pick
Sit
Architect
transverse
Centennial
confess
polling
##aia
Julien
##mand
consolidation
Ethel
##ulse
severity
Yorker
choreographer
1840s
##ltry
softer
versa
##geny
##quila
##jō
Caledonia
Friendship
Visa
rogue
##zzle
bait
feather
incidence
Foods
Ships
##uto
##stead
arousal
##rote
Hazel
##bolic
Swing
##ej
##cule
##jana
##metry
##uity
Valuable
##ₙ
Shropshire
##nect
365
Ones
realise
Café
Albuquerque
##grown
##stadt
209
##ᵢ
prefers
withstand
Lillian
MacArthur
Hara
##fulness
domination
##VO
##school
Freddy
ethnicity
##while
adorned
hormone
Calder
Domestic
Freud
Shields
##phus
##rgan
BP
Segunda
Mustang
##GI
Bonn
patiently
remarried
##umbria
Crete
Elephant
Nuremberg
tolerate
Tyson
##evich
Programming
##lander
Bethlehem
segregation
Constituency
quarterly
blushed
photographers
Sheldon
porcelain
Blanche
goddamn
lively
##fused
bumps
##eli
curated
coherent
provoked
##vet
Madeleine
##isco
rainy
Bethel
accusation
ponytail
gag
##lington
quicker
scroll
##vate
Bow
Gender
Ira
crashes
ACT
Maintenance
##aton
##ieu
bitterly
strains
rattled
vectors
##arina
##ishly
173
parole
##nx
amusing
Gonzalez
##erative
Caucus
sensual
Penelope
coefficient
Mateo
##mani
proposition
Duty
lacrosse
proportions
Plato
profiles
Botswana
Brandt
reins
mandolin
encompassing
##gens
Kahn
prop
summon
##MR
##yrian
##zaki
Falling
conditional
thy
##bao
##ych
radioactive
##nics
Newspaper
##people
##nded
Gaming
sunny
##look
Sherwood
crafted
NJ
awoke
187
timeline
giants
possessing
##ycle
Cheryl
ng
Ruiz
polymer
potassium
Ramsay
relocation
##leen
Sociology
##bana
Franciscan
propulsion
denote
##erjee
registers
headline
Tests
emerges
Articles
Mint
livery
breakup
kits
Rap
Browning
Bunny
##mington
##watch
Anastasia
Zachary
arranging
biographical
Erica
Nippon
##membrance
Carmel
##sport
##xes
Paddy
##holes
Issues
Spears
compliment
##stro
##graphs
Castillo
##MU
##space
Corporal
##nent
174
Gentlemen
##ilize
##vage
convinces
Carmine
Crash
##hashi
Files
Doctors
brownish
sweating
goats
##conductor
rendition
##bt
NL
##spiration
generates
##cans
obsession
##noy
Danger
Diaz
heats
Realm
priorities
##phon
1300
initiation
pagan
bursts
archipelago
chloride
Screenplay
Hewitt
Khmer
bang
judgement
negotiating
##ait
Mabel
densely
Boulder
knob
430
Alfredo
##kt
pitches
##ées
##ان
Macdonald
##llum
imply
##mot
Smile
spherical
##tura
Derrick
Kelley
Nico
cortex
launches
differed
parallels
Navigation
##child
##rming
canoe
forestry
reinforce
##mote
confirming
tasting
scaled
##resh
##eting
Understanding
prevailing
Pearce
CW
earnest
Gaius
asserts
denoted
landmarks
Chargers
warns
##flies
Judges
jagged
##dain
tails
Historian
Millie
##sler
221
##uard
absurd
Dion
##ially
makeshift
Specifically
ignorance
Eat
##ieri
comparisons
forensic
186
Giro
skeptical
disciplinary
battleship
##45
Libby
520
Odyssey
ledge
##post
Eternal
Missionary
deficiency
settler
wonders
##gai
raging
##cis
Romney
Ulrich
annexation
boxers
sect
204
ARIA
dei
Hitchcock
te
Varsity
##fic
CC
lending
##nial
##tag
##rdy
##obe
Defensive
##dson
##pore
stellar
Lam
Trials
contention
Sung
##uminous
Poe
superiority
##plicate
325
bitten
conspicuous
##olly
Lila
Pub
Petit
distorted
ISIL
distinctly
##family
Cowboy
mutant
##cats
##week
Changes
Sinatra
epithet
neglect
Innocent
gamma
thrill
reggae
##adia
##ational
##due
landlord
##leaf
visibly
##ì
Darlington
Gomez
##iting
scarf
##lade
Hinduism
Fever
scouts
##roi
convened
##oki
184
Lao
boycott
unemployed
##lore
##ß
##hammer
Curran
disciples
odor
##ygiene
Lighthouse
Played
whales
discretion
Yves
##ceived
pauses
coincide
##nji
dizzy
##scopic
routed
Guardians
Kellan
carnival
nasal
224
##awed
Mitsubishi
640
Cast
silky
Projects
joked
Huddersfield
Rothschild
zu
##olar
Divisions
mildly
##eni
##lge
Appalachian
Sahara
pinch
##roon
wardrobe
##dham
##etal
Bubba
##lini
##rumbling
Communities
Poznań
unification
Beau
Kris
SV
Rowing
Minh
reconciliation
##saki
##sor
taped
##reck
certificates
gubernatorial
rainbow
##uing
litter
##lique
##oted
Butterfly
benefited
Images
induce
Balkans
Velvet
##90
##xon
Bowman
##breaker
penis
##nitz
##oint
##otive
crust
##pps
organizers
Outdoor
nominees
##rika
TX
##ucks
Protestants
##imation
appetite
Baja
awaited
##points
windshield
##igh
##zled
Brody
Buster
stylized
Bryce
##sz
Dollar
vest
mold
ounce
ok
receivers
##uza
Purdue
Harrington
Hodges
captures
##ggio
Reservation
##ssin
##tman
cosmic
straightforward
flipping
remixed
##athed
Gómez
Lim
motorcycles
economies
owning
Dani
##rosis
myths
sire
kindly
1768
Bean
graphs
##mee
##RO
##geon
puppy
Stephenson
notified
##jer
Watching
##rama
Sino
urgency
Islanders
##mash
Plata
fumble
##chev
##stance
##rack
##she
facilitated
swings
akin
enduring
payload
##phine
Deputies
murals
##tooth
610
Jays
eyeing
##quito
transparency
##cote
Timor
negatively
##isan
battled
##fected
thankful
Rage
hospitality
incorrectly
207
entrepreneurs
##cula
##wley
hedge
##cratic
Corpus
Odessa
Whereas
##ln
fetch
happier
Amherst
bullying
graceful
Height
Bartholomew
willingness
qualifier
191
Syed
Wesleyan
Layla
##rrence
Webber
##hum
Rat
##cket
##herence
Monterey
contaminated
Beside
Mustafa
Nana
213
##pruce
Reason
##spense
spike
##gé
AU
disciple
charcoal
##lean
formulated
Diesel
Mariners
accreditation
glossy
1800s
##ih
Mainz
unison
Marianne
shear
overseeing
vernacular
bowled
##lett
unpopular
##ckoned
##monia
Gaston
##TI
##oters
Cups
##bones
##ports
Museo
minors
1773
Dickens
##EL
##NBC
Presents
ambitions
axes
Río
Yukon
bedside
Ribbon
Units
faults
conceal
##lani
prevailed
214
Goodwin
Jaguar
crumpled
Cullen
Wireless
ceded
remotely
Bin
mocking
straps
ceramics
##avi
##uding
##ader
Taft
twenties
##aked
Problem
quasi
Lamar
##ntes
##avan
Barr
##eral
hooks
sa
##ône
194
##ross
Nero
Caine
trance
Homeland
benches
Guthrie
dismiss
##lex
César
foliage
##oot
##alty
Assyrian
Ahead
Murdoch
dictatorship
wraps
##ntal
Corridor
Mackay
respectable
jewels
understands
##pathic
Bryn
##tep
ON
capsule
intrigued
Sleeping
communists
##chayat
##current
##vez
doubling
booklet
##uche
Creed
##NU
spies
##sef
adjusting
197
Imam
heaved
Tanya
canonical
restraint
senators
stainless
##gnate
Matter
cache
restrained
conflicting
stung
##ool
Sustainable
antiquity
193
heavens
inclusive
##ador
fluent
303
911
archaeologist
superseded
##plex
Tammy
inspire
##passing
##lub
Lama
Mixing
##activated
##yote
parlor
tactic
198
Stefano
prostitute
recycling
sorted
banana
Stacey
Musée
aristocratic
cough
##rting
authorised
gangs
runoff
thoughtfully
##nish
Fisheries
Provence
detector
hum
##zhen
pill
##árez
Map
Leaves
Peabody
skater
vent
##color
390
cerebral
hostages
mare
Jurassic
swell
##isans
Knoxville
Naked
Malaya
scowl
Cobra
##anga
Sexual
##dron
##iae
196
##drick
Ravens
Blaine
##throp
Ismail
symmetric
##lossom
Leicestershire
Sylvester
glazed
##tended
Radar
fused
Families
Blacks
Sale
Zion
foothills
microwave
slain
Collingwood
##pants
##dling
killers
routinely
Janice
hearings
##chanted
##ltration
continents
##iving
##yster
##shot
##yna
injected
Guillaume
##ibi
kinda
Confederacy
Barnett
disasters
incapable
##grating
rhythms
betting
draining
##hak
Callie
Glover
##iliated
Sherlock
hearted
punching
Wolverhampton
Leaf
Pi
builders
furnished
knighted
Photo
##zle
Touring
fumbled
pads
##ий
Bartlett
Gunner
eerie
Marius
Bonus
pots
##hino
##pta
Bray
Frey
Ortiz
stalls
belongings
Subway
fascination
metaphor
Bat
Boer
Colchester
sway
##gro
rhetoric
##dheim
Fool
PMID
admire
##hsil
Strand
TNA
##roth
Nottinghamshire
##mat
##yler
Oxfordshire
##nacle
##roner
BS
##nces
stimulus
transports
Sabbath
##postle
Richter
4000
##grim
##shima
##lette
deteriorated
analogous
##ratic
UHF
energies
inspiring
Yiddish
Activities
##quential
##boe
Melville
##ilton
Judd
consonants
labs
smuggling
##fari
avid
##uc
truce
undead
##raith
Mostly
bracelet
Connection
Hussain
awhile
##UC
##vention
liable
genetically
##phic
Important
Wildcats
daddy
transmit
##cas
conserved
Yesterday
##lite
Nicky
Guys
Wilder
Lay
skinned
Communists
Garfield
Nearby
organizer
Loss
crafts
walkway
Chocolate
Sundance
Synod
##enham
modify
swayed
Surface
analysts
brackets
drone
parachute
smelling
Andrés
filthy
frogs
vertically
##OK
localities
marries
AHL
35th
##pian
Palazzo
cube
dismay
relocate
##на
Hear
##digo
##oxide
prefecture
converts
hangar
##oya
##ucking
Spectrum
deepened
spoiled
Keeping
##phobic
Verona
outrage
Improvement
##UI
masterpiece
slung
Calling
chant
Haute
mediated
manipulated
affirmed
##hesis
Hangul
skies
##llan
Worcestershire
##kos
mosaic
##bage
##wned
Putnam
folder
##LM
guts
noteworthy
##rada
AJ
sculpted
##iselle
##rang
recognizable
##pent
dolls
lobbying
impatiently
Se
staple
Serb
tandem
Hiroshima
thieves
##ynx
faculties
Norte
##alle
##trusion
chords
##ylon
Gareth
##lops
##escu
FIA
Levin
auspices
groin
Hui
nun
Listed
Honourable
Larsen
rigorous
##erer
Tonga
##pment
##rave
##track
##aa
##enary
540
clone
sediment
esteem
sighted
cruelty
##boa
inverse
violating
Amtrak
Status
amalgamated
vertex
AR
harmless
Amir
mounts
Coronation
counseling
Audi
CO₂
splits
##eyer
Humans
Salmon
##have
##rado
##čić
216
takeoff
classmates
psychedelic
##gni
Gypsy
231
Anger
GAA
ME
##nist
##tals
Lissa
Odd
baptized
Fiat
fringe
##hren
179
elevators
perspectives
##TF
##ngle
Question
frontal
950
thicker
Molecular
##nological
Sixteen
Baton
Hearing
commemorative
dorm
Architectural
purity
##erse
risky
Georgie
relaxing
##ugs
downed
##rar
Slim
##phy
IUCN
##thorpe
Parkinson
217
Marley
Shipping
sweaty
Jesuits
Sindh
Janata
implying
Armenians
intercept
Ankara
commissioners
ascended
sniper
Grass
Walls
salvage
Dewey
generalized
learnt
PT
##fighter
##tech
DR
##itrus
##zza
mercenaries
slots
##burst
##finger
##nsky
Princes
Rhodesia
##munication
##strom
Fremantle
homework
ins
##Os
##hao
##uffed
Thorpe
Xiao
exquisite
firstly
liberated
technician
Oilers
Phyllis
herb
sharks
MBE
##stock
Product
banjo
##morandum
##than
Visitors
unavailable
unpublished
oxidation
Vogue
##copic
##etics
Yates
##ppard
Leiden
Trading
cottages
Principles
##Millan
##wife
##hiva
Vicar
nouns
strolled
##eorological
##eton
##science
precedent
Armand
Guido
rewards
##ilis
##tise
clipped
chick
##endra
averages
tentatively
1830s
##vos
Certainly
305
Société
Commandant
##crats
##dified
##nka
marsh
angered
ventilation
Hutton
Ritchie
##having
Eclipse
flick
motionless
Amor
Fest
Loire
lays
##icit
##sband
Guggenheim
Luck
disrupted
##ncia
Disco
##vigator
criticisms
grins
##lons
##vial
##ody
salute
Coaches
junk
saxophonist
##eology
Uprising
Diet
##marks
chronicles
robbed
##iet
##ahi
Bohemian
magician
wavelength
Kenyan
augmented
fashionable
##ogies
Luce
F1
Monmouth
##jos
##loop
enjoyment
exemption
Centers
##visor
Soundtrack
blinding
practitioner
solidarity
sacrificed
##oso
##cture
##riated
blended
Abd
Copyright
##nob
34th
##reak
Claudio
hectare
rotor
testify
##ends
##iably
##sume
landowner
##cess
##ckman
Eduard
Silesian
backseat
mutually
##abe
Mallory
bounds
Collective
Poet
Winkler
pertaining
scraped
Phelps
crane
flickering
Proto
bubbles
popularized
removes
##86
Cadillac
Warfare
audible
rites
shivering
##sist
##nst
##biotic
Mon
fascist
Bali
Kathryn
ambiguous
furiously
morale
patio
Sang
inconsistent
topology
Greens
monkeys
Köppen
189
Toy
vow
##ías
bombings
##culus
improvised
lodged
subsidiaries
garment
startling
practised
Hume
Thorn
categorized
Till
Eileen
wedge
##64
Federico
patriotic
unlock
##oshi
badminton
Compared
Vilnius
##KE
Crimean
Kemp
decks
spaced
resolutions
sighs
##mind
Imagine
Cartoon
huddled
policemen
forwards
##rouch
equals
##nter
inspected
Charley
MG
##rte
pamphlet
Arturo
dans
scarcely
##ulton
##rvin
parental
unconstitutional
watts
Susannah
Dare
##sitive
Rowland
Valle
invalid
##ué
Detachment
acronym
Yokohama
verified
##lsson
groove
Liza
clarified
compromised
265
##rgon
##orf
hesitant
Fruit
Application
Mathias
icons
##cell
Qin
interventions
##uron
punt
remnant
##rien
Ames
manifold
spines
floral
##zable
comrades
Fallen
orbits
Annals
hobby
Auditorium
implicated
researching
Pueblo
Ta
terminate
##pella
Rings
approximation
fuzzy
##ús
thriving
##ket
Conor
alarmed
etched
Cary
##rdon
Ally
##rington
Pay
mint
##hasa
##unity
##dman
##itate
Oceania
furrowed
trams
##aq
Wentworth
ventured
choreography
prototypes
Patel
mouthed
trenches
##licing
##yya
Lies
deception
##erve
##vations
Bertrand
earthquakes
##tography
Southwestern
##aja
token
Gupta
##yō
Beckett
initials
ironic
Tsar
subdued
shootout
sobbing
liar
Scandinavia
Souls
ch
therapist
trader
Regulation
Kali
busiest
##pation
32nd
Telephone
Vargas
##moky
##nose
##uge
Favorite
abducted
bonding
219
255
correction
mat
drown
fl
unbeaten
Pocket
Summers
Quite
rods
Percussion
##ndy
buzzing
cadet
Wilkes
attire
directory
utilities
naive
populous
Hendrix
##actor
disadvantage
1400
Landon
Underworld
##ense
Occasionally
mercury
Davey
Morley
spa
wrestled
##vender
eclipse
Sienna
supplemented
thou
Stream
liturgical
##gall
##berries
##piration
1769
Bucks
abandoning
##jutant
##nac
232
venom
##31
Roche
dotted
Currie
Córdoba
Milo
Sharif
divides
justification
prejudice
fortunate
##vide
##ābād
Rowe
inflammatory
##eld
avenue
Sources
##rimal
Messenger
Blanco
advocating
formulation
##pute
emphasizes
nut
Armored
##ented
nutrients
##tment
insistence
Martins
landowners
##RB
comparatively
headlines
snaps
##qing
Celebration
##mad
republican
##NE
Trace
##500
1771
proclamation
NRL
Rubin
Buzz
Weimar
##AG
199
posthumous
##ental
##deacon
Distance
intensely
overheard
Arcade
diagonal
hazard
Giving
weekdays
##ù
Verdi
actresses
##hare
Pulling
##erries
##pores
catering
shortest
##ctors
##cure
##restle
##reta
##runch
##brecht
##uddin
Moments
senate
Feng
Prescott
##thest
218
divisional
Bertie
sparse
surrounds
coupling
gravitational
werewolves
##lax
Rankings
##mated
##tries
Shia
##mart
##23
##vocative
interfaces
morphology
newscast
##bide
inputs
solicitor
Olaf
cabinets
puzzles
##tains
Unified
##firmed
WA
solemn
##opy
Tito
Jaenelle
Neolithic
horseback
##ires
pharmacy
prevalence
##lint
Swami
##bush
##tudes
Philipp
mythical
divers
Scouting
aperture
progressively
##bay
##nio
bounce
Floor
##elf
Lucan
adulthood
helm
Bluff
Passage
Salvation
lemon
napkin
scheduling
##gets
Elements
Mina
Novak
stalled
##llister
Infrastructure
##nky
##tania
##uished
Katz
Norma
sucks
trusting
1765
boilers
Accordingly
##hered
223
Crowley
##fight
##ulo
Henrietta
##hani
pounder
surprises
##chor
##glia
Dukes
##cracy
##zier
##fs
Patriot
silicon
##VP
simulcast
telegraph
Mysore
cardboard
Len
##QL
Auguste
accordion
analytical
specify
ineffective
hunched
abnormal
Transylvania
##dn
##tending
Emilia
glittering
Maddy
##wana
1762
External
Lecture
endorsement
Hernández
Anaheim
Ware
offences
##phorus
Plantation
popping
Bonaparte
disgusting
neared
##notes
Identity
heroin
nicely
##raverse
apron
congestion
##PR
padded
##fts
invaders
##came
freshly
Halle
endowed
fracture
ROM
##max
sediments
diffusion
dryly
##tara
Tam
Draw
Spin
Talon
Anthropology
##lify
nausea
##shirt
insert
Fresno
capitalist
indefinitely
apples
Gift
scooped
60s
Cooperative
mistakenly
##lover
murmur
##iger
Equipment
abusive
orphanage
##9th
##lterweight
##unda
Baird
ant
saloon
33rd
Chesapeake
##chair
##sound
##tend
chaotic
pornography
brace
##aret
heiress
SSR
resentment
Arbor
headmaster
##uren
unlimited
##with
##jn
Bram
Ely
Pokémon
pivotal
##guous
Database
Marta
Shine
stumbling
##ovsky
##skin
Henley
Polk
functioned
##layer
##pas
##udd
##MX
blackness
cadets
feral
Damian
##actions
2D
##yla
Apocalypse
##aic
inactivated
##china
##kovic
##bres
destroys
nap
Macy
sums
Madhya
Wisdom
rejects
##amel
60th
Cho
bandwidth
##sons
##obbing
##orama
Mutual
shafts
##estone
##rsen
accord
replaces
waterfront
##gonal
##rida
convictions
##ays
calmed
suppliers
Cummings
GMA
fearful
Scientist
Sinai
examines
experimented
Netflix
Enforcement
Scarlett
##lasia
Healthcare
##onte
Dude
inverted
##36
##regation
##lidae
Munro
##angay
Airbus
overlapping
Drivers
lawsuits
bodily
##udder
Wanda
Effects
Fathers
##finery
##islav
Ridley
observatory
pod
##utrition
Electricity
landslide
##mable
##zoic
##imator
##uration
Estates
sleepy
Nickelodeon
steaming
irony
schedules
snack
spikes
Hmm
##nesia
##bella
##hibit
Greenville
plucked
Harald
##ono
Gamma
infringement
roaring
deposition
##pol
##orum
660
seminal
passports
engagements
Akbar
rotated
##bina
##gart
Hartley
##lown
##truct
uttered
traumatic
Dex
##ôme
Holloway
MV
apartheid
##nee
Counter
Colton
OR
245
Spaniards
Regency
Schedule
scratching
squads
verify
##alk
keyboardist
rotten
Forestry
aids
commemorating
##yed
##érie
Sting
##elly
Dai
##fers
##berley
##ducted
Melvin
cannabis
glider
##enbach
##rban
Costello
Skating
cartoonist
AN
audit
##pectator
distributing
226
312
interpreter
header
Alternatively
##ases
smug
##kumar
cabins
remastered
Connolly
Kelsey
LED
tentative
Check
Sichuan
shaved
##42
Gerhard
Harvest
inward
##rque
Hopefully
hem
##34
Typical
binds
wrath
Woodstock
forcibly
Fergus
##charged
##tured
prepares
amenities
penetration
##ghan
coarse
##oned
enthusiasts
##av
##twined
fielded
##cky
Kiel
##obia
470
beers
tremble
youths
attendees
##cademies
##sex
Macon
communism
dir
##abi
Lennox
Wen
differentiate
jewel
##SO
activate
assert
laden
unto
Gillespie
Guillermo
accumulation
##GM
NGO
Rosenberg
calculating
drastically
##omorphic
peeled
Liège
insurgents
outdoors
##enia
Aspen
Sep
awakened
##eye
Consul
Maiden
insanity
##brian
furnace
Colours
distributions
longitudinal
syllables
##scent
Martian
accountant
Atkins
husbands
sewage
zur
collaborate
highlighting
##rites
##PI
colonization
nearer
##XT
dunes
positioning
Ku
multitude
luxurious
Volvo
linguistics
plotting
squared
##inder
outstretched
##uds
Fuji
ji
##feit
##ahu
##loat
##gado
##luster
##oku
América
##iza
Residents
vine
Pieces
DD
Vampires
##ová
smoked
harshly
spreads
##turn
##zhi
betray
electors
##settled
Considering
exploits
stamped
Dusty
enraged
Nairobi
##38
intervened
##luck
orchestras
##lda
Hereford
Jarvis
calf
##itzer
##CH
salesman
Lovers
cigar
Angelica
doomed
heroine
##tible
Sanford
offenders
##ulously
articulated
##oam
Emanuel
Gardiner
Edna
Shu
gigantic
##stable
Tallinn
coasts
Maker
ale
stalking
##oga
##smus
lucrative
southbound
##changing
Reg
##lants
Schleswig
discount
grouping
physiological
##OH
##sun
Galen
assurance
reconcile
rib
scarlet
Thatcher
anarchist
##oom
Turnpike
##ceding
cocktail
Sweeney
Allegheny
concessions
oppression
reassuring
##poli
##ticus
##TR
##VI
##uca
##zione
directional
strikeouts
Beneath
Couldn
Kabul
##national
hydroelectric
##jit
Desire
##riot
enhancing
northbound
##PO
Ok
Routledge
volatile
Bernardo
Python
333
ample
chestnut
automobiles
##innamon
##care
##hering
BWF
salaries
Turbo
acquisitions
##stituting
strengths
pilgrims
Ponce
Pig
Actors
Beard
sanitation
##RD
##mett
Telecommunications
worms
##idas
Juno
Larson
Ventura
Northeastern
weighs
Houghton
collaborating
lottery
##rano
Wonderland
gigs
##lmer
##zano
##edd
##nife
mixtape
predominant
tripped
##ruly
Alexei
investing
Belgarath
Brasil
hiss
##crat
##xham
Côte
560
kilometer
##cological
analyzing
##As
engined
listener
##cakes
negotiation
##hisky
Santana
##lemma
IAAF
Seneca
skeletal
Covenant
Steiner
##lev
##uen
Neptune
retention
##upon
Closing
Czechoslovak
chalk
Navarre
NZ
##IG
##hop
##oly
##quatorial
##sad
Brewery
Conflict
Them
renew
turrets
disagree
Petra
Slave
##reole
adjustment
##dela
##regard
##sner
framing
stature
##rca
##sies
##46
##mata
Logic
inadvertently
naturalist
spheres
towering
heightened
Dodd
rink
##fle
Keyboards
bulb
diver
ul
##tsk
Exodus
Deacon
España
Canadiens
oblique
thud
reigned
rug
Whitman
Dash
##iens
Haifa
pets
##arland
manually
dart
##bial
Sven
textiles
subgroup
Napier
graffiti
revolver
humming
Babu
protector
typed
Provinces
Sparta
Wills
subjective
##rella
temptation
##liest
FL
Sadie
manifest
Guangdong
Transfer
entertain
eve
recipes
##33
Benedictine
retailer
##dence
establishes
##cluded
##rked
Ursula
##ltz
##lars
##rena
qualifiers
##curement
colt
depictions
##oit
Spiritual
differentiation
staffed
transitional
##lew
1761
fatalities
##oan
Bayern
Northamptonshire
Weeks
##CU
Fife
capacities
hoarse
##latt
##ة
evidenced
##HD
##ographer
assessing
evolve
hints
42nd
streaked
##lve
Yahoo
##estive
##rned
##zas
baggage
Elected
secrecy
##champ
Character
Pen
Decca
cape
Bernardino
vapor
Dolly
counselor
##isers
Benin
##khar
##CR
notch
##thus
##racy
bounty
lend
grassland
##chtenstein
##dating
pseudo
golfer
simplest
##ceive
Lucivar
Triumph
dinosaur
dinosaurs
##šić
Seahawks
##nco
resorts
reelected
1766
reproduce
universally
##OA
ER
tendencies
Consolidated
Massey
Tasmanian
reckless
##icz
##ricks
1755
questionable
Audience
##lates
preseason
Quran
trivial
Haitian
Freeway
dialed
Appointed
Heard
ecosystems
##bula
hormones
Carbon
Rd
##arney
##working
Christoph
presiding
pu
##athy
Morrow
Dar
ensures
posing
remedy
EA
disclosed
##hui
##rten
rumours
surveying
##ficiency
Aziz
Jewel
Plays
##smatic
Bernhard
Christi
##eanut
##friend
jailed
##dr
govern
neighbour
butler
Acheron
murdering
oils
mac
Editorial
detectives
bolts
##ulon
Guitars
malaria
36th
Pembroke
Opened
##hium
harmonic
serum
##sio
Franks
fingernails
##gli
culturally
evolving
scalp
VP
deploy
uploaded
mater
##evo
Jammu
Spa
##icker
flirting
##cursions
Heidi
Majority
sprawled
##alytic
Zheng
bunker
##lena
ST
##tile
Jiang
ceilings
##ently
##ols
Recovery
dire
##good
Manson
Honestly
Montréal
1764
227
quota
Lakshmi
incentive
Accounting
##cilla
Eureka
Reaper
buzzed
##uh
courtroom
dub
##mberg
KC
Gong
Theodor
Académie
NPR
criticizing
protesting
##pired
##yric
abuses
fisheries
##minated
1767
yd
Gemini
Subcommittee
##fuse
Duff
Wasn
Wight
cleaner
##tite
planetary
Survivor
Zionist
mounds
##rary
landfall
disruption
yielding
##yana
bids
unidentified
Garry
Ellison
Elmer
Fishing
Hayward
demos
modelling
##anche
##stick
caressed
entertained
##hesion
piers
Crimea
##mass
WHO
boulder
trunks
1640
Biennale
Palestinians
Pursuit
##udes
Dora
contender
##dridge
Nanjing
##ezer
##former
##ibel
Whole
proliferation
##tide
##weiler
fuels
predictions
##ente
##onium
Filming
absorbing
Ramón
strangled
conveyed
inhabit
prostitutes
recession
bonded
clinched
##eak
##iji
##edar
Pleasure
Rite
Christy
Therapy
sarcasm
##collegiate
hilt
probation
Sarawak
coefficients
underworld
biodiversity
SBS
groom
brewing
dungeon
##claiming
Hari
turnover
##ntina
##omer
##opped
orthodox
styling
##tars
##ulata
priced
Marjorie
##eley
##abar
Yong
##tically
Crambidae
Hernandez
##ego
##rricular
##ark
##lamour
##llin
##augh
##tens
Advancement
Loyola
##4th
##hh
goin
marshes
Sardinia
##ša
Ljubljana
Singing
suspiciously
##hesive
Félix
Regarding
flap
stimulation
##raught
Apr
Yin
gaping
tighten
skier
##itas
##lad
##rani
264
Ashes
Olson
Problems
Tabitha
##rading
balancing
sunrise
##ease
##iture
##ritic
Fringe
##iciency
Inspired
Linnaeus
PBA
disapproval
##kles
##rka
##tails
##urger
Disaster
Laboratories
apps
paradise
Aero
Came
sneaking
Gee
Beacon
ODI
commodity
Ellington
graphical
Gretchen
spire
##skaya
##trine
RTÉ
efficacy
plc
tribunal
##ytic
downhill
flu
medications
##kaya
widen
Sunrise
##nous
distinguishing
pawn
##BO
##irn
##ssing
##ν
Easton
##vila
Rhineland
##aque
defect
##saurus
Goose
Ju
##classified
Middlesbrough
shaping
preached
1759
##erland
Ein
Hailey
musicals
##altered
Galileo
Hilda
Fighters
Lac
##ometric
295
Leafs
Milano
##lta
##VD
##ivist
penetrated
Mask
Orchard
plaintiff
##icorn
Yvonne
##fred
outfielder
peek
Collier
Caracas
repealed
Bois
dell
restrict
Dolores
Hadley
peacefully
##LL
condom
Granny
Orders
sabotage
##toon
##rings
compass
marshal
gears
brigadier
dye
Yunnan
communicating
donate
emerald
vitamin
administer
Fulham
##classical
##llas
Buckinghamshire
Held
layered
disclosure
Akira
programmer
shrimp
Crusade
##ximal
Luzon
bakery
##cute
Garth
Citadel
uniquely
Curling
info
mum
Para
##ști
sleek
##ione
hey
Lantern
mesh
##lacing
##lizzard
##gade
prosecuted
Alba
Gilles
greedy
twists
##ogged
Viper
##kata
Appearances
Skyla
hymns
##pelled
curving
predictable
Grave
Watford
##dford
##liptic
##vary
Westwood
fluids
Models
statutes
##ynamite
1740
##culate
Framework
Johanna
##gression
Vuelta
imp
##otion
##raga
##thouse
Ciudad
festivities
##love
Beyoncé
italics
##vance
DB
##haman
outs
Singers
##ueva
##urning
##51
##ntiary
##mobile
285
Mimi
emeritus
nesting
Keeper
Ways
##onal
##oux
Edmond
MMA
##bark
##oop
Hampson
##ñez
##rets
Gladstone
wreckage
Pont
Playboy
reluctance
##ná
apprenticeship
preferring
Value
originate
##wei
##olio
Alexia
##rog
Parachute
jammed
stud
Eton
vols
##ganized
1745
straining
creep
indicators
##mán
humiliation
hinted
alma
tanker
##egation
Haynes
Penang
amazement
branched
rumble
##ddington
archaeologists
paranoid
expenditure
Absolutely
Musicians
banished
##fining
baptism
Joker
Persons
hemisphere
##tieth
##ück
flock
##xing
lbs
Kung
crab
##dak
##tinent
Regulations
barrage
parcel
##ós
Tanaka
##rsa
Natalia
Voyage
flaws
stepfather
##aven
##eological
Botanical
Minsk
##ckers
Cinderella
Feast
Loving
Previous
Shark
##took
barrister
collaborators
##nnes
Croydon
Graeme
Juniors
##7th
##formation
##ulos
##ák
£2
##hwa
##rove
##ș
Whig
demeanor
Otago
##TH
##ooster
Faber
instructors
##ahl
##bha
emptied
##schen
saga
##lora
exploding
##rges
Crusaders
##caster
##uations
streaks
CBN
bows
insights
ka
1650
diversion
LSU
Wingspan
##liva
Response
sanity
Producers
imitation
##fine
Lange
Spokane
splash
weed
Siberian
magnet
##rocodile
capitals
##rgus
swelled
Rani
Bells
Silesia
arithmetic
rumor
##hampton
favors
Weird
marketplace
##orm
tsunami
unpredictable
##citation
##ferno
Tradition
postwar
stench
succeeds
##roup
Anya
Users
oversized
totaling
pouch
##nat
Tripoli
leverage
satin
##cline
Bathurst
Lund
Niall
thereof
##quid
Bangor
barge
Animated
##53
##alan
Ballard
utilizes
Done
ballistic
NDP
gatherings
##elin
##vening
Rockets
Sabrina
Tamara
Tribal
WTA
##citing
blinded
flux
Khalid
Una
prescription
##jee
Parents
##otics
##food
Silicon
cured
electro
perpendicular
intimacy
##rified
Lots
##ceiving
##powder
incentives
McKenna
##arma
##ounced
##rinkled
Alzheimer
##tarian
262
Seas
##cam
Novi
##hout
##morphic
##hazar
##hul
##nington
Huron
Bahadur
Pirate
pursed
Griffiths
indicted
swap
refrain
##mulating
Lal
stomped
##Pad
##mamoto
Reef
disposed
plastered
weeping
##rato
Minas
hourly
tumors
##ruising
Lyle
##yper
##sol
Odisha
credibility
##Dowell
Braun
Graphic
lurched
muster
##nex
##ührer
##connected
##iek
##ruba
Carthage
Peck
maple
bursting
##lava
Enrico
rite
##jak
Moment
##skar
Styx
poking
Spartan
##urney
Hepburn
Mart
Titanic
newsletter
waits
Mecklenburg
agitated
eats
##dious
Chow
matrices
Maud
##sexual
sermon
234
##sible
##lung
Qi
cemeteries
mined
sprinter
##ckett
coward
##gable
##hell
##thin
##FB
Contact
##hay
rainforest
238
Hemisphere
boasts
##nders
##verance
##kat
Convent
Dunedin
Lecturer
lyricist
##bject
Iberian
comune
##pphire
chunk
##boo
thrusting
fore
informing
pistols
echoes
Tier
battleships
substitution
##belt
moniker
##charya
##lland
Thoroughbred
38th
##01
##tah
parting
tongues
Cale
##seau
Unionist
modular
celebrates
preview
steamed
Bismarck
302
737
vamp
##finity
##nbridge
weaknesses
husky
##berman
absently
##icide
Craven
tailored
Tokugawa
VIP
syntax
Kazan
captives
doses
filtered
overview
Cleopatra
Conversely
stallion
Burger
Suez
Raoul
th
##reaves
Dickson
Nell
Rate
anal
colder
##sław
Arm
Semitic
##green
reflective
1100
episcopal
journeys
##ours
##pository
##dering
residue
Gunn
##27
##ntial
##crates
##zig
Astros
Renee
Emerald
##vili
connectivity
undrafted
Sampson
treasures
##kura
##theon
##vern
Destroyer
##iable
##ener
Frederic
briefcase
confinement
Bree
##WD
Athena
233
Padres
Thom
speeding
##hali
Dental
ducks
Putin
##rcle
##lou
Asylum
##usk
dusk
pasture
Institutes
ONE
jack
##named
diplomacy
Intercontinental
Leagues
Towns
comedic
premature
##edic
##mona
##ories
trimmed
Charge
Cream
guarantees
Dmitry
splashed
Philosophical
tramway
##cape
Maynard
predatory
redundant
##gratory
##wry
sobs
Burgundy
edible
outfits
Handel
dazed
dangerously
idle
Operational
organizes
##sional
blackish
broker
weddings
##halt
Becca
McGee
##gman
protagonists
##pelling
Keynes
aux
stumble
##ordination
Nokia
reel
sexes
##woods
##pheric
##quished
##voc
##oir
##pathian
##ptus
##sma
##tating
##ê
fulfilling
sheath
##ayne
Mei
Ordinary
Collin
Sharpe
grasses
interdisciplinary
##OX
Background
##ignment
Assault
transforms
Hamas
Serge
ratios
##sik
swaying
##rcia
Rosen
##gant
##versible
cinematographer
curly
penny
Kamal
Mellon
Sailor
Spence
phased
Brewers
amassed
Societies
##ropriations
##buted
mythological
##SN
##byss
##ired
Sovereign
preface
Parry
##ife
altitudes
crossings
##28
Crewe
southernmost
taut
McKinley
##owa
##tore
254
##ckney
compiling
Shelton
##hiko
228
Poll
Shepard
Labs
Pace
Carlson
grasping
##ов
Delaney
Winning
robotic
intentional
shattering
##boarding
##git
##grade
Editions
Reserves
ignorant
proposing
##hanna
cutter
Mongols
NW
##eux
Codex
Cristina
Daughters
Rees
forecast
##hita
NGOs
Stations
Beaux
Erwin
##jected
##EX
##trom
Schumacher
##hrill
##rophe
Maharaja
Oricon
##sul
##dynamic
##fighting
Ce
Ingrid
rumbled
Prospect
stairwell
Barnard
applause
complementary
##uba
grunt
##mented
Bloc
Carleton
loft
noisy
##hey
490
contrasted
##inator
##rief
##centric
##fica
Cantonese
Blanc
Lausanne
License
artifact
##ddin
rot
Amongst
Prakash
RF
##topia
milestone
##vard
Winters
Mead
churchyard
Lulu
estuary
##ind
Cha
Infinity
Meadow
subsidies
##valent
CONCACAF
Ching
medicinal
navigate
Carver
Twice
abdominal
regulating
RB
toilets
Brewer
weakening
ambushed
##aut
##vignon
Lansing
unacceptable
reliance
stabbing
##mpo
##naire
Interview
##ested
##imed
bearings
##lts
Rashid
##iation
authenticity
vigorous
##frey
##uel
biologist
NFC
##rmaid
##wash
Makes
##aunt
##steries
withdrawing
##qa
Buccaneers
bleed
inclination
stain
##ilo
##ppel
Torre
privileged
cereal
trailers
alumnus
neon
Cochrane
Mariana
caress
##47
##ients
experimentation
Window
convict
signaled
##YP
rower
Pharmacy
interacting
241
Strings
dominating
kinase
Dinamo
Wire
pains
sensations
##suse
Twenty20
##39
spotlight
##hend
elemental
##pura
Jameson
Swindon
honoring
pained
##ediatric
##lux
Psychological
assemblies
ingredient
Martial
Penguins
beverage
Monitor
mysteries
##ION
emigration
mused
##sique
crore
AMC
Funding
Chinatown
Establishment
Finalist
enjoyable
1756
##mada
##rams
NO
newborn
CS
comprehend
Invisible
Siemens
##acon
246
contraction
##volving
##moration
##rok
montane
##ntation
Galloway
##llow
Verity
directorial
pearl
Leaning
##rase
Fernandez
swallowing
Automatic
Madness
haunting
paddle
##UE
##rrows
##vies
##zuki
##bolt
##iber
Fender
emails
paste
##lancing
hind
homestead
hopeless
##dles
Rockies
garlic
fatty
shrieked
##ismic
Gillian
Inquiry
Schultz
XML
##cius
##uld
Domesday
grenades
northernmost
##igi
Tbilisi
optimistic
##poon
Refuge
stacks
Bose
smash
surreal
Nah
Straits
Conquest
##roo
##weet
##kell
Gladys
CH
##lim
##vitation
Doctorate
NRHP
knocks
Bey
Romano
##pile
242
Diamonds
strides
eclectic
Betsy
clade
##hady
##leashed
dissolve
moss
Suburban
silvery
##bria
tally
turtles
##uctive
finely
industrialist
##nary
Ernesto
oz
pact
loneliness
##hov
Tomb
multinational
risked
Layne
USL
ne
##quiries
Ad
Message
Kamen
Kristen
reefs
implements
##itative
educators
garments
gunshot
##essed
##rve
Montevideo
vigorously
Stamford
assemble
packaged
##same
état
Viva
paragraph
##eter
##wire
Stick
Navajo
MCA
##pressing
ensembles
ABA
##zor
##llus
Partner
raked
##BI
Iona
thump
Celeste
Kiran
##iscovered
##rith
inflammation
##arel
Features
loosened
##yclic
Deluxe
Speak
economical
Frankenstein
Picasso
showcased
##zad
##eira
##planes
##linear
##overs
monsoon
prosecutors
slack
Horses
##urers
Angry
coughing
##truder
Questions
##tō
##zak
challenger
clocks
##ieving
Newmarket
##acle
cursing
stimuli
##mming
##qualified
slapping
##vasive
narration
##kini
Advertising
CSI
alliances
mixes
##yes
covert
amalgamation
reproduced
##ardt
##gis
1648
id
Annette
Boots
Champagne
Brest
Daryl
##emon
##jou
##llers
Mean
adaptive
technicians
##pair
##usal
Yoga
fronts
leaping
Jul
harvesting
keel
##44
petitioned
##lved
yells
Endowment
proponent
##spur
##tised
##zal
Homes
Includes
##ifer
##oodoo
##rvette
awarding
mirrored
ransom
Flute
outlook
##ganj
DVDs
Sufi
frontman
Goddard
barren
##astic
Suicide
hillside
Harlow
Lau
notions
Amnesty
Homestead
##irt
GE
hooded
umpire
mustered
Catch
Masonic
##erd
Dynamics
Equity
Oro
Charts
Mussolini
populace
muted
accompaniment
##lour
##ndes
ignited
##iferous
##laced
##atch
anguish
registry
##tub
##hards
##neer
251
Hooker
uncomfortably
##6th
##ivers
Catalina
MiG
giggling
1754
Dietrich
Kaladin
pricing
##quence
Sabah
##lving
##nical
Gettysburg
Vita
Telecom
Worst
Palais
Pentagon
##brand
##chichte
Graf
unnatural
1715
bio
##26
Radcliffe
##utt
chatting
spices
##aus
untouched
##eper
Doll
turkey
Syndicate
##rlene
##JP
##roots
Como
clashed
modernization
1757
fantasies
##iating
dissipated
Sicilian
inspect
sensible
reputed
##final
Milford
poised
RC
metabolic
Tobacco
Mecca
optimization
##heat
lobe
rabbits
NAS
geologist
##liner
Kilda
carpenter
nationalists
##brae
summarized
##venge
Designer
misleading
beamed
##meyer
Matrix
excuses
##aines
##biology
401
Moose
drafting
Sai
##ggle
Comprehensive
dripped
skate
##WI
##enan
##ruk
narrower
outgoing
##enter
##nounce
overseen
##structure
travellers
banging
scarred
##thing
##arra
Ebert
Sometime
##nated
BAFTA
Hurricanes
configurations
##MLL
immortality
##heus
gothic
##mpest
clergyman
viewpoint
Maxim
Instituto
emitted
quantitative
1689
Consortium
##rsk
Meat
Tao
swimmers
Shaking
Terence
mainline
##linity
Quantum
##rogate
Nair
banquet
39th
reprised
lagoon
subdivisions
synonymous
incurred
password
sprung
##vere
Credits
Petersen
Faces
##vu
statesman
Zombie
gesturing
##going
Sergey
dormant
possessive
totals
southward
Ángel
##odies
HM
Mariano
Ramirez
Wicked
impressions
##Net
##cap
##ème
Transformers
Poker
RIAA
Redesignated
##chuk
Harcourt
Peña
spacious
tinged
alternatively
narrowing
Brigham
authorization
Membership
Zeppelin
##amed
Handball
steer
##orium
##rnal
##rops
Committees
endings
##MM
##yung
ejected
grams
##relli
Birch
Hilary
Stadion
orphan
clawed
##kner
Motown
Wilkins
ballads
outspoken
##ancipation
##bankment
##cheng
Advances
harvested
novelty
ineligible
oversees
##´s
obeyed
inevitably
Kingdoms
burying
Fabian
relevance
Tatiana
##MCA
sarcastic
##onda
Akron
229
sandwiches
Adobe
Maddox
##azar
Hunting
##onized
Smiling
##tology
Juventus
Leroy
Poets
attach
lo
##rly
##film
Structure
##igate
olds
projections
SMS
outnumbered
##tase
judiciary
paramilitary
playfully
##rsing
##tras
Chico
Vin
informally
abandonment
##russ
Baroness
injuring
octagonal
deciduous
##nea
##olm
Hz
Norwood
poses
Marissa
alerted
willed
##KS
Dino
##ddler
##vani
Barbie
Thankfully
625
bicycles
shimmering
##tinuum
##wolf
Chesterfield
##idy
##urgency
Knowles
sweetly
Ventures
##ponents
##valence
Darryl
Powerplant
RAAF
##pec
Kingsley
Parramatta
penetrating
spectacle
##inia
Marlborough
residual
compatibility
hike
Underwood
depleted
ministries
##odus
##ropriation
rotting
Faso
##inn
Happiness
Lille
Suns
cookie
rift
warmly
##lvin
Bugs
Gotham
Gothenburg
Properties
##seller
##ubi
Created
MAC
Noelle
Requiem
Ulysses
##ails
franchises
##icious
##rwick
celestial
kinetic
720
STS
transmissions
amplitude
forums
freeing
reptiles
tumbling
##continent
##rising
##tropy
physiology
##uster
Loves
bodied
neutrality
Neumann
assessments
Vicky
##hom
hampered
##uku
Custom
timed
##eville
##xious
elastic
##section
rig
stilled
shipment
243
artworks
boulders
Bournemouth
##hly
##LF
##linary
rumored
##bino
##drum
Chun
Freiburg
##dges
Equality
252
Guadalajara
##sors
##taire
Roach
cramped
##ultural
Logistics
Punch
fines
Lai
caravan
##55
lame
Collector
pausing
315
migrant
hawk
signalling
##erham
##oughs
Demons
surfing
Rana
insisting
Wien
adolescent
##jong
##rera
##umba
Regis
brushes
##iman
residues
storytelling
Consider
contrasting
regeneration
##elling
##hlete
afforded
reactors
costing
##biotics
##gat
##евич
chanting
secondly
confesses
##ikos
##uang
##ronological
##−
Giacomo
##eca
vaudeville
weeds
rejecting
revoked
affluent
fullback
progresses
geologic
proprietor
replication
gliding
recounted
##bah
##igma
Flow
ii
newcomer
##lasp
##miya
Candace
fractured
interiors
confidential
Inverness
footing
##robe
Coordinator
Westphalia
jumper
##chism
dormitory
##gno
281
acknowledging
leveled
##éra
Algiers
migrate
Frog
Rare
##iovascular
##urous
DSO
nomadic
##iera
woken
lifeless
##graphical
##ifications
Dot
Sachs
crow
nmi
Tacoma
Weight
mushroom
RS
conditioned
##zine
Tunisian
altering
##mizing
Handicap
Patti
Monsieur
clicking
gorge
interrupting
##powerment
drawers
Serra
##icides
Specialist
##itte
connector
worshipped
##ask
consoles
tags
##iler
glued
##zac
fences
Bratislava
honeymoon
313
A2
disposition
Gentleman
Gilmore
glaciers
##scribed
Calhoun
convergence
Aleppo
shortages
##43
##orax
##worm
##codes
##rmal
neutron
##ossa
Bloomberg
Salford
periodicals
##ryan
Slayer
##ynasties
credentials
##tista
surveyor
File
stinging
unnoticed
Medici
ecstasy
espionage
Jett
Leary
circulating
bargaining
concerto
serviced
37th
HK
##fueling
Delilah
Marcia
graded
##join
Kaplan
feasible
##nale
##yt
Burnley
dreadful
ministerial
Brewster
Judah
##ngled
##rrey
recycled
Iroquois
backstage
parchment
##numbered
Kern
Motorsports
Organizations
##mini
Seems
Warrington
Dunbar
Ezio
##eor
paralyzed
Ara
yeast
##olis
cheated
reappeared
banged
##ymph
##dick
Lyndon
glide
Mat
##natch
Hotels
Household
parasite
irrelevant
youthful
##smic
##tero
##anti
2d
Ignacio
squash
##nets
shale
##اد
Abrams
##oese
assaults
##dier
##otte
Swamp
287
Spurs
##economic
Fargo
auditioned
##mé
Haas
une
abbreviation
Turkic
##tisfaction
favorites
specials
##lial
Enlightenment
Burkina
##vir
Comparative
Lacrosse
elves
##lerical
##pear
Borders
controllers
##villa
excelled
##acher
##varo
camouflage
perpetual
##ffles
devoid
schooner
##bered
##oris
Gibbons
Lia
discouraged
sue
##gnition
Excellent
Layton
noir
smack
##ivable
##evity
##lone
Myra
weaken
weaponry
##azza
Shake
backbone
Certified
clown
occupational
caller
enslaved
soaking
Wexford
perceive
shortlisted
##pid
feminism
Bari
Indie
##avelin
##ldo
Hellenic
Hundreds
Savings
comedies
Honors
Mohawk
Told
coded
Incorporated
hideous
trusts
hose
Calais
Forster
Gabon
Internationale
AK
Colour
##UM
##heist
McGregor
localized
##tronomy
Darrell
##iara
squirrel
freaked
##eking
##manned
##ungen
radiated
##dua
commence
Donaldson
##iddle
MR
SAS
Tavern
Teenage
admissions
Instruments
##ilizer
Konrad
contemplated
##ductor
Jing
Reacher
recalling
Dhabi
emphasizing
illumination
##tony
legitimacy
Goethe
Ritter
McDonnell
Polar
Seconds
aspiring
derby
tunic
##rmed
outlines
Changing
distortion
##cter
Mechanics
##urly
##vana
Egg
Wolverine
Stupid
centralized
knit
##Ms
Saratoga
Ogden
storylines
##vres
lavish
beverages
##grarian
Kyrgyzstan
forcefully
superb
Elm
Thessaloniki
follower
Plants
slang
trajectory
Nowadays
Bengals
Ingram
perch
coloring
carvings
doubtful
##aph
##gratulations
##41
Curse
253
nightstand
Campo
Meiji
decomposition
##giri
McCormick
Yours
##amon
##bang
Texans
injunction
organise
periodical
##peculative
oceans
##aley
Success
Lehigh
##guin
1730
Davy
allowance
obituary
##tov
treasury
##wayne
euros
readiness
systematically
##stered
##igor
##xen
##cliff
##lya
Send
##umatic
Celtics
Judiciary
425
propagation
rebellious
##ims
##lut
Dal
##ayman
##cloth
Boise
pairing
Waltz
torment
Hatch
aspirations
diaspora
##hame
Rank
237
Including
Muir
chained
toxicity
Université
##aroo
Mathews
meadows
##bio
Editing
Khorasan
##them
##ahn
##bari
##umes
evacuate
##sium
gram
kidnap
pinning
##diation
##orms
beacon
organising
McGrath
##ogist
Qur
Tango
##ceptor
##rud
##cend
##cie
##jas
##sided
Tuscany
Venture
creations
exhibiting
##rcerer
##tten
Butcher
Divinity
Pet
Whitehead
falsely
perished
handy
Moines
cyclists
synthesizers
Mortal
notoriety
##ronic
Dialogue
expressive
uk
Nightingale
grimly
vineyards
Driving
relentless
compiler
##district
##tuated
Hades
medicines
objection
Answer
Soap
Chattanooga
##gogue
Haryana
Parties
Turtle
##ferred
explorers
stakeholders
##aar
##rbonne
tempered
conjecture
##tee
##hur
Reeve
bumper
stew
##church
##generate
##ilitating
##chanized
##elier
##enne
translucent
##lows
Publisher
evangelical
inherit
##rted
247
SmackDown
bitterness
lesions
##worked
mosques
wed
##lashes
Ng
Rebels
booking
##nail
Incident
Sailing
yo
confirms
Chaplin
baths
##kled
modernist
pulsing
Cicero
slaughtered
boasted
##losure
zipper
##hales
aristocracy
halftime
jolt
unlawful
Marching
sustaining
Yerevan
bracket
ram
Markus
##zef
butcher
massage
##quisite
Leisure
Pizza
collapsing
##lante
commentaries
scripted
##disciplinary
##sused
eroded
alleging
vase
Chichester
Peacock
commencement
dice
hotter
poisonous
executions
##occo
frost
fielding
vendor
Counts
Troops
maize
Divisional
analogue
shadowy
Nuevo
Ville
radiating
worthless
Adriatic
Buy
blaze
brutally
horizontally
longed
##matical
federally
Rolf
Root
exclude
rag
agitation
Lounge
astonished
##wirl
Impossible
transformations
##IVE
##ceded
##slav
downloaded
fucked
Egyptians
Welles
##ffington
U2
befriended
radios
##jid
archaic
compares
##ccelerator
##imated
##tosis
Hung
Scientists
Thousands
geographically
##LR
Macintosh
fluorescent
##ipur
Wehrmacht
##BR
##firmary
Chao
##ague
Boyer
##grounds
##hism
##mento
##taining
infancy
##cton
510
Boca
##loy
1644
ben
dong
stresses
Sweat
expressway
graders
ochreous
nets
Lawn
thirst
Uruguayan
satisfactory
##tracts
baroque
rusty
##ław
Shen
Gdańsk
chickens
##graving
Hodge
Papal
SAT
bearer
##ogo
##rger
merits
Calendar
Highest
Skills
##ortex
Roberta
paradigm
recounts
frigates
swamps
unitary
##oker
balloons
Hawthorne
Muse
spurred
advisors
reclaimed
stimulate
fibre
pat
repeal
##dgson
##iar
##rana
anthropologist
descends
flinch
reared
##chang
##eric
##lithic
commissioning
##cumenical
##lume
##rchen
Wolff
##tsky
Eurasian
Nepali
Nightmare
ZIP
playback
##latz
##vington
Warm
##75
Martina
Rollins
Saetan
Variations
sorting
##م
530
Joaquin
Ptolemy
thinner
##iator
##pticism
Cebu
Highlanders
Linden
Vanguard
##SV
##mor
##ulge
ISSN
cartridges
repression
Étienne
311
Lauderdale
commodities
null
##rb
1720
gearbox
##reator
Ang
Forgotten
dubious
##rls
##dicative
##phate
Groove
Herrera
##çais
Collections
Maximus
##published
Fell
Qualification
filtering
##tized
Roe
hazards
##37
##lative
##tröm
Guadalupe
Tajikistan
Preliminary
fronted
glands
##paper
##iche
##iding
Cairns
rallies
Location
seduce
##mple
BYU
##itic
##FT
Carmichael
Prentice
songwriters
forefront
Physicians
##rille
##zee
Preparatory
##cherous
UV
##dized
Navarro
misses
##nney
Inland
resisting
##sect
Hurt
##lino
galaxies
##raze
Institutions
devote
##lamp
##ciating
baron
##bracing
Hess
operatic
##CL
##ος
Chevalier
Guiana
##lattered
Fed
##cuted
##smo
Skull
denies
236
Waller
##mah
Sakura
mole
nominate
sermons
##bering
widowed
##röm
Cavendish
##struction
Nehru
Revelation
doom
Gala
baking
Nr
Yourself
banning
Individuals
Sykes
orchestrated
630
Phone
steered
620
specialising
starvation
##AV
##alet
##upation
seductive
##jects
##zure
Tolkien
Benito
Wizards
Submarine
dictator
Duo
Caden
approx
basins
##nc
shrink
##icles
##sponsible
249
mit
outpost
##bayashi
##rouse
##tl
Jana
Lombard
RBIs
finalized
humanities
##function
Honorable
tomato
##iot
Pie
tee
##pect
Beaufort
Ferris
bucks
##graduate
##ocytes
Directory
anxiously
##nating
flanks
##Ds
virtues
##believable
Grades
criterion
manufactures
sourced
##balt
##dance
##tano
Ying
##BF
##sett
adequately
blacksmith
totaled
trapping
expanse
Historia
Worker
Sense
ascending
housekeeper
##oos
Crafts
Resurrection
##verty
encryption
##aris
##vat
##pox
##runk
##iability
gazes
spying
##ths
helmets
wired
##zophrenia
Cheung
WR
downloads
stereotypes
239
Lucknow
bleak
Bragg
hauling
##haft
prohibit
##ermined
##castle
barony
##hta
Typhoon
antibodies
##ascism
Hawthorn
Kurdistan
Minority
Gorge
Herr
appliances
disrupt
Drugs
Lazarus
##ilia
##ryo
##tany
Gotta
Masovian
Roxy
choreographed
##rissa
turbulent
##listed
Anatomy
exiting
##det
##isław
580
Kaufman
sage
##apa
Symposium
##rolls
Kaye
##ptera
##rocław
jerking
##menclature
Guo
M1
resurrected
trophies
##lard
Gathering
nestled
serpent
Dow
reservoirs
Claremont
arbitration
chronicle
eki
##arded
##zers
##mmoth
Congregational
Astronomical
NE
RA
Robson
Scotch
modelled
slashed
##imus
exceeds
##roper
##utile
Laughing
vascular
superficial
##arians
Barclay
Caucasian
classmate
sibling
Kimberly
Shreveport
##ilde
##liche
Cheney
Deportivo
Veracruz
berries
##lase
Bed
MI
Anatolia
Mindanao
broadband
##olia
##arte
##wab
darts
##immer
##uze
believers
ordinance
violate
##wheel
##ynth
Alongside
Coupe
Hobbs
arrondissement
earl
townland
##dote
##lihood
##sla
Ghosts
midfield
pulmonary
##eno
cues
##gol
##zda
322
Siena
Sultanate
Bradshaw
Pieter
##thical
Raceway
bared
competence
##ssent
Bet
##urer
##ła
Alistair
Göttingen
appropriately
forge
##osterone
##ugen
DL
345
convoys
inventions
##resses
##cturnal
Fay
Integration
slash
##roats
Widow
barking
##fant
1A
Hooper
##cona
##runched
unreliable
##emont
##esign
##stabulary
##stop
Journalists
bony
##iba
##trata
##ège
horrific
##bish
Jocelyn
##rmon
##apon
##cier
trainers
##ulatory
1753
BR
corpus
synthesized
##bidden
##rafford
Elgin
##entry
Doherty
clockwise
##played
spins
##ample
##bley
Cope
constructions
seater
warlord
Voyager
documenting
fairies
##viator
Lviv
jewellery
suites
##gold
Maia
NME
##eavor
##kus
Eugène
furnishings
##risto
MCC
Metropolis
Older
Telangana
##mpus
amplifier
supervising
1710
buffalo
cushion
terminating
##powering
steak
Quickly
contracting
dem
sarcastically
Elsa
##hein
bastards
narratives
Takes
304
composure
typing
variance
##ifice
Softball
##rations
McLaughlin
gaped
shrines
##hogany
Glamorgan
##icle
##nai
##ntin
Fleetwood
Woodland
##uxe
fictitious
shrugs
##iper
BWV
conform
##uckled
Launch
##ductory
##mized
Tad
##stituted
##free
Bel
Chávez
messing
quartz
##iculate
##folia
##lynn
ushered
##29
##ailing
dictated
Pony
##opsis
precinct
802
Plastic
##ughter
##uno
##porated
Denton
Matters
SPD
hating
##rogen
Essential
Deck
Dortmund
obscured
##maging
Earle
##bred
##ittle
##ropolis
saturated
##fiction
##ression
Pereira
Vinci
mute
warehouses
##ún
biographies
##icking
sealing
##dered
executing
pendant
##wives
murmurs
##oko
substrates
symmetrical
Susie
##mare
Yusuf
analogy
##urage
Lesley
limitation
##rby
##ío
disagreements
##mise
embroidered
nape
unarmed
Sumner
Stores
dwell
Wilcox
creditors
##rivatization
##shes
##amia
directs
recaptured
scouting
McGuire
cradle
##onnell
Sato
insulin
mercenary
tolerant
Macquarie
transitions
cradled
##berto
##ivism
##yotes
FF
Ke
Reach
##dbury
680
##bill
##oja
##sui
prairie
##ogan
reactive
##icient
##rits
Cyclone
Sirius
Survival
Pak
##coach
##trar
halves
Agatha
Opus
contrasts
##jection
ominous
##iden
Baylor
Woodrow
duct
fortification
intercourse
##rois
Colbert
envy
##isi
Afterward
geared
##flections
accelerate
##lenching
Witness
##rrer
Angelina
Material
assertion
misconduct
Nix
cringed
tingling
##eti
##gned
Everest
disturb
sturdy
##keepers
##vied
Profile
heavenly
##kova
##victed
translating
##sses
316
Invitational
Mention
martyr
##uristic
Barron
hardness
Nakamura
405
Genevieve
reflections
##falls
jurist
##LT
Pyramid
##yme
Shoot
heck
linguist
##tower
Ives
superiors
##leo
Achilles
##phological
Christophe
Padma
precedence
grassy
Oral
resurrection
##itting
clumsy
##lten
##rue
huts
##stars
Equal
##queduct
Devin
Gaga
diocesan
##plating
##upe
##graphers
Patch
Scream
hail
moaning
tracts
##hdi
Examination
outsider
##ergic
##oter
Archipelago
Havilland
greenish
tilting
Aleksandr
Konstantin
warship
##emann
##gelist
##ought
billionaire
##blivion
321
Hungarians
transplant
##jured
##fters
Corbin
autism
pitchers
Garner
thence
Scientology
transitioned
integrating
repetitive
##dant
Rene
vomit
##burne
1661
Researchers
Wallis
insulted
wavy
##wati
Ewing
excitedly
##kor
frescoes
injustice
##achal
##lumber
##úl
novella
##sca
Liv
##enstein
##river
monstrous
topping
downfall
looming
sinks
trillion
##pont
Effect
##phi
##urley
Sites
catchment
##H1
Hopper
##raiser
1642
Maccabi
lance
##chia
##sboro
NSA
branching
retorted
tensor
Immaculate
drumming
feeder
##mony
Dyer
homicide
Temeraire
fishes
protruding
skins
orchards
##nso
inlet
ventral
##finder
Asiatic
Sul
1688
Melinda
assigns
paranormal
gardening
Tau
calming
##inge
##crow
regimental
Nik
fastened
correlated
##gene
##rieve
Sick
##minster
##politan
hardwood
hurled
##ssler
Cinematography
rhyme
Montenegrin
Packard
debating
##itution
Helens
Trick
Museums
defiance
encompassed
##EE
##TU
##nees
##uben
##ünster
##nosis
435
Hagen
cinemas
Corbett
commended
##fines
##oman
bosses
ripe
scraping
##loc
filly
Saddam
pointless
Faust
Orléans
Syriac
##♭
longitude
##ropic
Alfa
bliss
gangster
##ckling
SL
blending
##eptide
##nner
bends
escorting
##bloid
##quis
burials
##sle
##è
Ambulance
insults
##gth
Antrim
unfolded
##missible
splendid
Cure
warily
Saigon
Waste
astonishment
boroughs
##VS
##dalgo
##reshing
##usage
rue
marital
versatile
unpaid
allotted
bacterium
##coil
##cue
Dorothea
IDF
##location
##yke
RPG
##tropical
devotees
liter
##pree
Johnstone
astronaut
attends
pollen
periphery
doctrines
meta
showered
##tyn
GO
Huh
laude
244
Amar
Christensen
Ping
Pontifical
Austen
raiding
realities
##dric
urges
##dek
Cambridgeshire
##otype
Cascade
Greenberg
Pact
##cognition
##aran
##urion
Riot
mimic
Eastwood
##imating
reversal
##blast
##henian
Pitchfork
##sunderstanding
Staten
WCW
lieu
##bard
##sang
experimenting
Aquino
##lums
TNT
Hannibal
catastrophic
##lsive
272
308
##otypic
41st
Highways
aggregator
##fluenza
Featured
Reece
dispatch
simulated
##BE
Communion
Vinnie
hardcover
inexpensive
til
##adores
groundwater
kicker
blogs
frenzy
##wala
dealings
erase
Anglia
##umour
Hapoel
Marquette
##raphic
##tives
consult
atrocities
concussion
##érard
Decree
ethanol
##aen
Rooney
##chemist
##hoot
1620
menacing
[...]
